▁xxunk	0
▁xxpad	0
▁xxbos	0
▁xxeos	0
▁xxfld	0
▁xxmaj	0
▁xxup	0
▁xxrep	0
▁xxwrep	0
<unk>	0
▁	-2.17007
▁de	-3.22133
,	-3.37239
'	-3.64308
.	-3.71482
▁la	-3.79966
s	-3.96939
▁le	-4.03091
▁et	-4.15678
▁l	-4.20211
▁à	-4.30967
▁en	-4.37063
▁d	-4.55128
▁les	-4.55768
▁des	-4.6544
▁du	-4.68972
-	-4.73975
▁est	-4.94106
▁il	-5.13581
▁dans	-5.14353
▁un	-5.16255
▁par	-5.21859
’	-5.27986
▁une	-5.29189
▁au	-5.32242
▁pour	-5.37125
▁"	-5.38615
▁(	-5.45328
"	-5.53666
▁qui	-5.54703
▁a	-5.66334
▁que	-5.69625
▁sur	-5.71795
e	-5.71977
▁son	-5.75303
▁avec	-5.85202
▁se	-5.90741
▁plus	-6.00177
▁sa	-6.08124
▁sont	-6.12803
un	-6.16343
)	-6.16826
▁:	-6.18277
a	-6.22773
▁ce	-6.24986
▁qu	-6.276
est	-6.32283
▁elle	-6.35895
▁ou	-6.36891
une	-6.37676
▁«	-6.39825
▁aux	-6.48384
▁comme	-6.48404
▁ses	-6.49048
▁été	-6.52267
il	-6.52753
▁cette	-6.54747
▁deux	-6.58834
r	-6.62454
▁pas	-6.62599
▁mais	-6.63672
▁ne	-6.68188
▁n	-6.68334
en	-6.70402
▁/	-6.75987
",	-6.79993
es	-6.81301
▁c	-6.82678
▁fait	-6.85709
).	-6.85778
▁après	-6.86387
),	-6.89943
▁entre	-6.90913
▁lui	-6.94562
▁ont	-6.96098
▁»	-6.96704
▁sous	-7.0196
▁leur	-7.0227
nt	-7.04948
y	-7.08533
▁ainsi	-7.10027
le	-7.10897
▁alors	-7.11847
>	-7.12145
▁même	-7.15916
l	-7.15966
o	-7.16791
t	-7.17797
▁où	-7.18324
▁fut	-7.1901
on	-7.19743
▁<	-7.19771
▁dont	-7.20576
▁aussi	-7.2153
▁doc	-7.22831
▁également	-7.2296
▁ces	-7.23153
▁était	-7.23169
▁lors	-7.25058
▁premier	-7.26107
▁on	-7.29958
▁première	-7.32469
▁saint	-7.33141
à	-7.33203
la	-7.35225
d	-7.35694
".	-7.35924
▁être	-7.36602
▁ans	-7.37536
▁france	-7.377
▁puis	-7.39343
▁depuis	-7.39639
▁y	-7.40651
▁;	-7.4186
i	-7.42456
▁peut	-7.43137
▁nom	-7.45543
▁partie	-7.46875
▁trois	-7.47449
▁plusieurs	-7.47765
c	-7.49069
ment	-7.49218
▁contre	-7.50498
▁jusqu	-7.50945
er	-7.51583
ci	-7.52038
▁années	-7.52534
▁très	-7.53279
▁ville	-7.53323
de	-7.53336
▁groupe	-7.54026
▁tout	-7.59
▁fin	-7.60191
é	-7.6263
▁avant	-7.634
▁vers	-7.64879
n	-7.65522
▁guerre	-7.67905
▁bien	-7.68526
in	-7.70024
▁si	-7.70075
▁grand	-7.71203
▁fois	-7.71934
▁ils	-7.73023
▁nord	-7.74359
▁sans	-7.75698
▁paris	-7.78703
▁pendant	-7.78919
▁commune	-7.78957
elle	-7.791
au	-7.79845
▁avait	-7.80083
▁pays	-7.80499
▁sud	-7.8077
▁français	-7.82069
ra	-7.83008
▁temps	-7.8383
▁place	-7.84134
▁suite	-7.85451
▁%	-7.86439
▁jean	-7.87212
▁».	-7.87393
▁notamment	-7.87499
▁selon	-7.89253
▁tous	-7.89667
▁grande	-7.89827
▁monde	-7.90348
▁mort	-7.91056
autres	-7.91192
▁nouveau	-7.92217
▁leurs	-7.92452
▁peu	-7.92819
et	-7.92952
▁encore	-7.93552
▁faire	-7.94988
▁avoir	-7.95203
▁saison	-7.95702
▁autres	-7.95781
▁cours	-7.96286
▁nouvelle	-7.9668
it	-7.97064
▁celui	-7.97491
k	-7.98196
▁partir	-7.9934
b	-8.00875
▁général	-8.00906
m	-8.01157
les	-8.01403
al	-8.01499
▁soit	-8.01701
▁devient	-8.01723
▁quelques	-8.01926
▁début	-8.02823
▁non	-8.03238
état	-8.03489
▁car	-8.03516
or	-8.04149
ant	-8.05233
▁("	-8.05283
▁lieu	-8.05375
▁donc	-8.05408
▁quatre	-8.05548
an	-8.06171
eau	-8.0643
h	-8.06729
▁vie	-8.07457
▁2	-8.07586
▁celle	-8.07769
▁tour	-8.08309
p	-8.08573
u	-8.09433
▁famille	-8.10514
▁m	-8.10735
▁titre	-8.1144
▁3	-8.1195
▁série	-8.12567
▁durant	-8.12789
z	-8.14097
▁tard	-8.14208
▁moins	-8.1436
▁»,	-8.1463
▁nombre	-8.15016
▁région	-8.15167
ne	-8.15354
:	-8.15585
f	-8.16117
us	-8.17395
être	-8.17521
▁4	-8.17907
▁états	-8.17941
▁ensuite	-8.19065
▁cas	-8.21613
▁cependant	-8.22444
▁forme	-8.22525
▁centre	-8.22941
▁15	-8.23586
▁dès	-8.23804
église	-8.23852
▁roi	-8.24041
ouest	-8.24179
g	-8.24292
▁film	-8.2473
▁ligne	-8.25299
▁club	-8.261
▁française	-8.2623
▁fils	-8.26418
▁société	-8.27121
armée	-8.27353
▁dernier	-8.27457
▁part	-8.27552
▁chaque	-8.27634
▁mai	-8.27706
année	-8.27997
▁10	-8.28124
▁afin	-8.28133
▁mois	-8.28978
▁politique	-8.29264
histoire	-8.29648
ait	-8.3071
▁juin	-8.30783
▁nombreux	-8.30963
▁né	-8.32511
▁mars	-8.32696
x	-8.32743
ou	-8.33405
▁président	-8.33633
▁chez	-8.33728
▁5	-8.34122
unis	-8.3424
▁certains	-8.34317
▁trouve	-8.34564
▁cet	-8.34614
is	-8.35049
équipe	-8.35088
origine	-8.35135
▁deuxième	-8.35149
▁père	-8.35262
▁1	-8.35544
université	-8.35679
art	-8.36405
▁près	-8.36888
▁permet	-8.37648
▁septembre	-8.37854
▁pierre	-8.37926
▁gouvernement	-8.37958
▁étaient	-8.38496
▁parti	-8.38712
▁souvent	-8.39221
▁étant	-8.39288
▁tant	-8.39384
v	-8.39468
▁juillet	-8.40724
▁face	-8.40925
▁conseil	-8.41019
na	-8.41423
▁b	-8.41619
re	-8.41776
▁toujours	-8.4301
▁sera	-8.43096
▁doit	-8.43498
▁reste	-8.43531
▁ayant	-8.43613
▁jour	-8.44014
▁autre	-8.44093
▁service	-8.44455
▁janvier	-8.4485
école	-8.45404
▁point	-8.45678
▁14	-8.46202
ur	-8.46428
man	-8.46621
▁formula	-8.4703
▁peuvent	-8.47141
▁national	-8.47158
▁système	-8.47224
▁the	-8.47265
")	-8.47983
hui	-8.48127
▁décembre	-8.48238
▁toute	-8.48286
el	-8.48476
▁nommé	-8.48714
▁projet	-8.48876
▁compte	-8.4897
▁rôle	-8.49447
▁chef	-8.4945
▁nationale	-8.49788
▁octobre	-8.50353
▁château	-8.50374
▁re	-8.50755
▁année	-8.51147
▁va	-8.51157
▁prix	-8.51217
▁jeu	-8.51419
▁toutes	-8.51786
▁membres	-8.51852
▁parmi	-8.51869
▁prend	-8.52142
▁seconde	-8.52254
▁novembre	-8.52433
▁période	-8.52586
▁cinq	-8.53141
▁maison	-8.53223
▁12	-8.54136
▁6	-8.54755
▁exemple	-8.54818
▁niveau	-8.54899
époque	-8.55711
▁travail	-8.56272
▁avril	-8.56371
▁long	-8.5644
▁membre	-8.5691
▁grâce	-8.57686
▁dé	-8.57761
▁effet	-8.57799
▁ré	-8.57818
▁août	-8.58178
▁village	-8.58214
▁droit	-8.58687
▁population	-8.59376
the	-8.59815
▁of	-8.59845
ils	-8.60109
▁troisième	-8.60151
te	-8.60454
autre	-8.6095
▁jours	-8.61001
▁site	-8.61261
▁succès	-8.61585
ta	-8.61724
▁13	-8.61735
▁nombreuses	-8.61736
▁j	-8.61852
▁co	-8.62047
▁jeune	-8.6262
▁département	-8.63075
▁furent	-8.63298
▁porte	-8.63368
▁corps	-8.63567
ma	-8.64349
▁février	-8.64685
▁territoire	-8.6589
▁située	-8.6595
▁développement	-8.65994
▁mondiale	-8.66156
▁musique	-8.66473
▁carrière	-8.66485
même	-8.66507
aux	-8.66843
▁construction	-8.67301
da	-8.67496
▁louis	-8.67548
▁cela	-8.67583
▁tête	-8.67678
▁personnes	-8.67776
▁7	-8.67876
▁in	-8.68046
▁petit	-8.68389
▁ceux	-8.68836
2	-8.69037
▁8	-8.69324
▁11	-8.69509
▁public	-8.69669
▁lorsque	-8.69918
île	-8.69981
ent	-8.70859
▁laquelle	-8.71132
▁p	-8.71149
ordre	-8.7116
▁pouvoir	-8.71225
▁base	-8.71314
▁20	-8.71361
▁aujourd	-8.71364
du	-8.71609
▁création	-8.71849
▁sein	-8.72005
▁plan	-8.72442
▁raison	-8.72608
▁production	-8.72919
▁rue	-8.72928
▁loi	-8.73088
▁enfants	-8.73466
▁présente	-8.73525
▁mise	-8.73537
▁seul	-8.73891
▁f	-8.73902
▁terre	-8.74029
▁beaucoup	-8.74486
ing	-8.74724
▁quand	-8.74868
ensemble	-8.75445
▁match	-8.75566
▁premiers	-8.75692
ce	-8.7574
▁but	-8.76234
▁devant	-8.7631
ton	-8.76358
▁six	-8.76474
▁déjà	-8.76487
▁elles	-8.76792
▁direction	-8.76954
1	-8.76996
▁charles	-8.77434
ée	-8.778
▁travaux	-8.77938
ville	-8.78063
sur	-8.78181
▁version	-8.78594
▁fille	-8.78607
▁cour	-8.78785
at	-8.79028
▁ministre	-8.7906
▁ii	-8.79206
▁côté	-8.79234
▁9	-8.79427
▁dernière	-8.79429
▁hommes	-8.79438
j	-8.79489
▁mis	-8.79586
▁16	-8.80016
▁femme	-8.8015
agit	-8.80399
ch	-8.80636
▁situé	-8.81074
▁points	-8.81336
▁second	-8.82012
ia	-8.82043
▁passe	-8.82105
▁type	-8.82183
▁mer	-8.82572
▁retour	-8.82767
▁communes	-8.82854
ont	-8.8308
son	-8.83248
abord	-8.83347
▁environ	-8.83498
▁bataille	-8.83844
▁dit	-8.83864
▁new	-8.84115
▁formation	-8.84155
▁poste	-8.84386
▁donne	-8.84449
▁connu	-8.84454
ie	-8.84674
▁mouvement	-8.84797
▁eu	-8.85013
▁participe	-8.85023
▁livre	-8.85289
▁(19	-8.85539
▁finalement	-8.85611
▁écrit	-8.85915
▁recherche	-8.85947
ar	-8.86087
▁produit	-8.86191
▁font	-8.86349
▁compagnie	-8.86374
▁fonction	-8.86512
w	-8.86597
-19	-8.86684
▁commence	-8.86728
▁certaines	-8.86876
▁terme	-8.86961
▁mal	-8.86974
▁seulement	-8.86999
▁championnat	-8.87015
▁études	-8.87365
▁rapport	-8.87518
▁bois	-8.87699
▁g	-8.88062
▁ni	-8.88595
album	-8.88899
▁militaire	-8.89172
▁an	-8.89208
▁communauté	-8.89394
âge	-8.89783
▁réseau	-8.89997
▁parfois	-8.90329
après	-8.90389
▁malgré	-8.905
èrent	-8.90583
▁scène	-8.90943
▁différents	-8.91047
aient	-8.9116
▁république	-8.91215
co	-8.91429
▁fer	-8.9144
▁route	-8.91862
▁haut	-8.91952
▁royaume	-8.91956
ine	-8.92577
age	-8.92965
▁cause	-8.92968
était	-8.92985
▁particulier	-8.93056
▁cadre	-8.93098
▁coupe	-8.93203
▁zone	-8.93375
▁habitants	-8.93461
▁demande	-8.93654
▁h	-8.9405
▁milieu	-8.94075
ka	-8.94127
▁mère	-8.9418
▁tandis	-8.94242
▁v	-8.94259
ation	-8.9445
th	-8.94652
▁date	-8.94778
né	-8.9492
▁album	-8.95012
union	-8.95366
ad	-8.95671
;	-8.95681
▁dix	-8.95868
que	-8.96108
▁utilisé	-8.96135
▁al	-8.96159
▁division	-8.96509
qui	-8.97049
▁millions	-8.97056
▁rencontre	-8.97164
▁directeur	-8.97274
▁autour	-8.9751
▁suivante	-8.97543
▁musée	-8.97563
▁joue	-8.98186
▁toutefois	-8.98346
▁grands	-8.98785
▁plupart	-8.98794
▁petite	-8.98833
▁domaine	-8.99106
▁mont	-8.99112
mer	-8.99377
▁femmes	-8.99512
as	-8.99572
▁surtout	-9.00391
...	-9.00632
▁obtient	-9.00868
ca	-9.0111
▁paul	-9.01269
▁manière	-9.01319
▁30	-9.0134
to	-9.01503
no	-9.01573
▁enfin	-9.01667
▁aurait	-9.01777
▁moment	-9.01781
▁lequel	-9.01787
ro	-9.01843
▁siège	-9.01874
▁différentes	-9.01887
▁travers	-9.01904
▁moyen	-9.01925
▁met	-9.01936
▁jamais	-9.02
▁marie	-9.02074
▁fort	-9.0245
▁marque	-9.02678
europe	-9.03031
▁seule	-9.03262
▁(18	-9.03763
▁créé	-9.04038
▁joueur	-9.04105
▁nous	-9.04192
os	-9.04245
isme	-9.04334
3	-9.04395
me	-9.04398
▁roman	-9.04609
▁françois	-9.04894
empire	-9.04929
▁théâtre	-9.05183
▁anglais	-9.05217
ge	-9.05244
▁finale	-9.05381
ex	-9.05759
▁john	-9.05813
▁ligue	-9.05868
▁18	-9.06079
▁élections	-9.06113
ancien	-9.06609
ac	-9.06684
▁style	-9.06961
▁chanson	-9.07068
▁remporte	-9.0713
▁suivant	-9.0722
▁gauche	-9.07232
▁publié	-9.07289
di	-9.07643
▁rejoint	-9.07695
▁important	-9.07744
association	-9.07783
▁propre	-9.07797
▁moyenne	-9.07855
▁jeux	-9.08025
▁frère	-9.08113
▁existe	-9.08292
▁présence	-9.08385
▁eux	-9.08498
▁pont	-9.08858
▁17	-9.08864
▁liste	-9.09279
▁rapidement	-9.09281
▁pu	-9.09643
▁nouvelles	-9.09737
▁appelé	-9.09908
▁sol	-9.10142
▁bon	-9.10309
um	-9.10347
▁sort	-9.10572
ga	-9.10588
▁langue	-9.1061
▁international	-9.10749
▁reçoit	-9.10942
homme	-9.10988
▁premières	-9.11131
aire	-9.11459
▁pré	-9.11586
▁pro	-9.11605
▁décide	-9.11935
▁k	-9.11955
▁culture	-9.12261
▁25	-9.12737
air	-9.12772
és	-9.12896
ri	-9.12994
▁victoire	-9.13255
▁jeunes	-9.13329
▁façon	-9.13507
ier	-9.13593
▁généralement	-9.13863
▁principalement	-9.13935
ré	-9.14079
▁américain	-9.14272
aide	-9.14464
▁possible	-9.14898
▁retrouve	-9.1504
▁york	-9.15171
▁haute	-9.15171
▁élu	-9.15265
▁and	-9.15438
▁–	-9.15657
▁sens	-9.15864
▁voit	-9.1611
▁radio	-9.16168
▁lorsqu	-9.1624
▁programme	-9.16294
iste	-9.16604
▁rivière	-9.16693
▁bar	-9.16765
▁gare	-9.16951
▁principal	-9.16953
▁possède	-9.17144
▁donné	-9.17163
▁bas	-9.17307
▁sept	-9.17493
▁di	-9.17599
▁épouse	-9.1771
ter	-9.17719
▁services	-9.17754
▁t	-9.17819
▁ma	-9.17887
▁troupes	-9.18144
br	-9.1846
intérieur	-9.18625
▁position	-9.18676
▁ancien	-9.189
▁etc	-9.19096
▁vue	-9.19107
ni	-9.19313
▁importante	-9.19326
ry	-9.19335
▁quartier	-9.19632
▁campagne	-9.197
▁prendre	-9.19702
▁avaient	-9.19714
▁jacques	-9.19717
▁grandes	-9.19753
▁force	-9.19896
ard	-9.19914
▁contrôle	-9.20044
▁homme	-9.20063
▁combat	-9.20165
▁mi	-9.20167
▁auprès	-9.20273
▁professeur	-9.20452
ti	-9.20775
▁parc	-9.2078
▁robert	-9.20843
do	-9.20854
▁con	-9.20895
▁construit	-9.20933
▁classe	-9.20984
▁fit	-9.21148
ient	-9.21167
▁tels	-9.213
"),	-9.21703
▁départ	-9.21852
der	-9.2196
▁serait	-9.22013
▁forces	-9.22229
▁je	-9.22503
▁24	-9.22953
▁province	-9.23228
ir	-9.23369
▁britannique	-9.23409
dire	-9.23448
▁proche	-9.23617
▁voix	-9.23646
▁port	-9.23819
▁celles	-9.23826
▁droite	-9.2409
ique	-9.24386
▁trop	-9.24442
par	-9.24531
▁sortie	-9.24705
lin	-9.24817
▁comte	-9.25231
li	-9.25324
▁pris	-9.25555
▁œuvre	-9.25582
▁œuvres	-9.25691
ner	-9.2581
été	-9.25825
particulièrement	-9.25904
▁semble	-9.25978
▁football	-9.26001
▁nouveaux	-9.26087
▁annonce	-9.2612
▁révolution	-9.26307
▁équipe	-9.26555
▁groupes	-9.26597
mi	-9.26661
▁commission	-9.26804
auteur	-9.26934
▁assez	-9.27115
▁modèle	-9.27293
▁bâtiment	-9.27381
▁21	-9.27391
▁personnage	-9.27586
▁mission	-9.28339
▁outre	-9.28511
organisation	-9.28514
œuvre	-9.28665
action	-9.28701
▁mesure	-9.28705
4	-9.28721
▁voie	-9.28938
▁atteint	-9.29172
▁19	-9.29178
mont	-9.29306
pa	-9.29588
▁san	-9.29901
▁vol	-9.30069
argent	-9.30128
▁festival	-9.30146
occasion	-9.30305
▁meilleur	-9.30314
objet	-9.30355
ba	-9.3082
go	-9.30828
▁faisant	-9.31246
▁produits	-9.31413
▁22	-9.31548
té	-9.31615
▁sainte	-9.31712
▁suisse	-9.31775
vi	-9.31796
land	-9.31867
▁charge	-9.31911
▁w	-9.32544
▁époque	-9.32697
▁composé	-9.32807
ed	-9.32822
▁droits	-9.32956
se	-9.33082
eur	-9.33125
▁termine	-9.3313
avoir	-9.33218
▁meurt	-9.33355
▁anti	-9.33361
institut	-9.33413
▁journal	-9.3344
▁chemin	-9.33725
des	-9.33911
entreprise	-9.34109
▁mettre	-9.34163
▁personne	-9.34285
▁mar	-9.34317
▁heures	-9.3442
▁internationale	-9.34619
▁politiques	-9.34753
entre	-9.34947
▁rend	-9.34956
eux	-9.35037
rie	-9.35112
ot	-9.35186
▁défense	-9.35393
▁taille	-9.35535
▁comité	-9.35556
▁américaine	-9.35606
sa	-9.35713
▁chambre	-9.35897
▁canada	-9.35899
▁bord	-9.36021
▁critique	-9.36094
elles	-9.36138
▁23	-9.36165
mo	-9.36189
▁devenu	-9.36229
▁comprend	-9.36267
▁rouge	-9.36356
administration	-9.36436
▁ex	-9.36436
abbaye	-9.36591
▁henri	-9.36594
▁contrat	-9.36708
▁quitte	-9.36709
honneur	-9.36876
▁taux	-9.36983
▁voir	-9.37013
▁passage	-9.37039
▁populaire	-9.37115
▁activités	-9.3712
▁prince	-9.3716
▁me	-9.37436
empereur	-9.376
▁van	-9.37687
dessus	-9.37843
▁générale	-9.37926
▁marché	-9.37943
▁publie	-9.38013
▁permettant	-9.38022
▁aucun	-9.3829
▁économique	-9.3829
▁salle	-9.38349
▁faut	-9.38386
▁total	-9.38388
▁londres	-9.38444
▁créée	-9.38565
val	-9.38635
▁technique	-9.38639
▁large	-9.38749
dé	-9.38757
▁canton	-9.38796
▁michel	-9.38851
▁mot	-9.39203
▁valeur	-9.3922
com	-9.39319
▁données	-9.39396
▁camp	-9.39414
▁notre	-9.39416
▁allemand	-9.3961
▁situation	-9.39657
▁réalisé	-9.39789
").	-9.40053
uni	-9.40108
▁qualité	-9.40172
ke	-9.40224
ko	-9.40235
▁sciences	-9.40518
▁désormais	-9.40577
▁bo	-9.40666
▁libre	-9.40757
▁chapelle	-9.40861
▁demi	-9.40949
▁devenir	-9.41135
▁signe	-9.41156
▁ha	-9.4118
▁divers	-9.41248
▁plutôt	-9.41262
▁vallée	-9.4137
▁maître	-9.41423
am	-9.41447
ées	-9.41458
▁québec	-9.41505
entrée	-9.41834
▁nuit	-9.41988
be	-9.42211
académie	-9.42395
ion	-9.42467
▁rome	-9.42496
▁main	-9.42535
▁presse	-9.4267
▁centrale	-9.42726
▁course	-9.42953
▁surface	-9.43069
fa	-9.43194
▁vient	-9.43295
▁équipes	-9.43324
▁quant	-9.4351
▁classement	-9.43645
▁huit	-9.43743
▁matchs	-9.43799
id	-9.43952
▁éléments	-9.43956
▁pièces	-9.44018
▁double	-9.44037
assemblée	-9.44061
ana	-9.44086
ai	-9.44093
bas	-9.44273
▁cinéma	-9.44464
▁japon	-9.44522
▁iii	-9.44529
▁mode	-9.44536
▁cap	-9.44651
▁sécurité	-9.44736
▁2010,	-9.45011
▁pratique	-9.45031
▁européenne	-9.45106
▁vi	-9.45133
▁2014,	-9.45206
▁—	-9.45306
▁ensemble	-9.4534
▁russe	-9.45346
va	-9.45398
▁santé	-9.45504
▁historique	-9.45549
▁vit	-9.45556
▁considéré	-9.45557
ité	-9.45575
▁ailleurs	-9.45635
▁station	-9.45656
ley	-9.45671
lo	-9.45736
enseignement	-9.45736
▁2012,	-9.45839
▁terrain	-9.45915
ly	-9.45916
▁espèces	-9.46113
bo	-9.46173
ère	-9.46197
▁propose	-9.46297
▁capitale	-9.46321
▁majorité	-9.46455
mar	-9.46747
ja	-9.46834
▁joueurs	-9.46996
▁ministère	-9.47004
▁prise	-9.47106
▁26	-9.47261
▁2015,	-9.47353
▁duc	-9.47368
▁to	-9.47371
▁reçu	-9.47465
▁publique	-9.47552
▁conditions	-9.47664
pe	-9.4774
▁mètres	-9.4782
espace	-9.47837
▁police	-9.48056
per	-9.48168
▁longue	-9.48227
ck	-9.48303
▁nature	-9.48363
▁2011,	-9.4837
allemagne	-9.4837
▁bonne	-9.48562
émission	-9.48586
▁europe	-9.48603
urs	-9.48618
▁célèbre	-9.48699
▁""	-9.48924
▁passé	-9.49042
▁principaux	-9.49213
▁néanmoins	-9.49243
▁simple	-9.49268
▁mariage	-9.49279
▁philippe	-9.49557
▁presque	-9.49634
▁sujet	-9.49655
▁28	-9.49788
▁moteur	-9.49948
▁certain	-9.49954
▁aucune	-9.50041
▁quatrième	-9.50095
▁villes	-9.50208
▁palais	-9.50234
don	-9.50257
che	-9.5035
▁genre	-9.5037
▁vitesse	-9.50511
▁livres	-9.50576
▁blanc	-9.50653
▁principale	-9.5079
▁2013,	-9.50836
▁continue	-9.50896
▁régime	-9.50922
▁vingt	-9.50958
▁commerce	-9.50973
ailleurs	-9.50976
▁cité	-9.51047
▁apparaît	-9.51216
▁lignes	-9.51284
▁vu	-9.51384
▁bi	-9.51453
▁fonctions	-9.51462
ancienne	-9.51503
▁doivent	-9.51585
▁structure	-9.51631
tu	-9.51777
▁inter	-9.51894
▁lac	-9.51914
▁montre	-9.52015
▁là	-9.52025
▁garde	-9.52057
▁vice	-9.52059
▁joseph	-9.52275
▁david	-9.52337
arrivée	-9.52414
▁forte	-9.52427
▁films	-9.52482
▁coup	-9.52489
▁naissance	-9.52546
5	-9.52623
▁source	-9.52911
▁belgique	-9.53008
ux	-9.53022
▁27	-9.53064
ale	-9.53188
tte	-9.53362
▁supérieur	-9.53364
▁maire	-9.53426
▁référence	-9.53546
▁secrétaire	-9.53775
▁soutien	-9.53867
▁traité	-9.53879
▁ben	-9.53916
▁télévision	-9.53985
▁x	-9.54042
ha	-9.54242
▁ami	-9.54359
▁faible	-9.54419
▁question	-9.54441
ver	-9.54535
utilisation	-9.54604
▁russie	-9.5471
▁capitaine	-9.54726
▁2009,	-9.54754
q	-9.54803
▁per	-9.55271
▁tournée	-9.55422
▁mon	-9.55503
st	-9.55575
▁tel	-9.55652
▁côte	-9.55847
▁chargé	-9.55921
▁travaille	-9.55927
ien	-9.56109
▁personnages	-9.56113
▁2008,	-9.56154
▁derniers	-9.56177
environ	-9.56332
▁parties	-9.5634
▁chaîne	-9.56361
▁feu	-9.56424
élection	-9.56534
ger	-9.56616
rait	-9.56659
▁créer	-9.56724
▁bande	-9.56914
▁gestion	-9.56929
▁côtés	-9.57114
▁transport	-9.57122
▁vidéo	-9.57319
▁&	-9.57422
▁compétition	-9.57486
▁voyage	-9.57529
▁moitié	-9.57576
▁protection	-9.57581
▁chine	-9.57596
▁réalise	-9.57596
6	-9.5764
▁unique	-9.57672
isation	-9.57687
po	-9.57691
si	-9.57716
if	-9.57731
▁2016,	-9.57828
idée	-9.57858
italie	-9.5788
▁central	-9.57996
▁texte	-9.58335
°	-9.58435
▁stade	-9.58482
▁marine	-9.58491
▁champ	-9.58498
▁terres	-9.58518
▁section	-9.5855
lé	-9.58678
▁noir	-9.58743
ny	-9.58784
▁secteur	-9.58988
▁collection	-9.59186
▁anciens	-9.59202
▁connue	-9.59254
pierre	-9.5934
▁go	-9.59361
▁col	-9.59471
▁2007,	-9.597
▁représente	-9.59701
saint	-9.59788
▁(«	-9.5982
▁titres	-9.5999
étude	-9.60042
▁cœur	-9.60179
▁100	-9.60233
▁donner	-9.6026
espagne	-9.60505
ki	-9.60675
▁royal	-9.60801
▁relations	-9.60845
▁utilisée	-9.60852
▁pape	-9.60854
▁pièce	-9.60992
ler	-9.61047
énergie	-9.61353
▁présent	-9.6145
▁représentant	-9.61496
▁val	-9.61534
▁petits	-9.61734
▁zones	-9.61742
▁lance	-9.61751
activité	-9.61767
▁passer	-9.62208
ul	-9.62234
▁rendre	-9.62327
▁siècle	-9.62376
▁fondation	-9.62376
▁choix	-9.62413
▁diverses	-9.62527
ty	-9.62583
▁arrive	-9.62773
▁50	-9.6288
ve	-9.62908
▁parlement	-9.63083
angleterre	-9.63132
▁lettres	-9.63176
▁appelée	-9.63181
▁artistes	-9.6329
▁jouer	-9.63304
▁suit	-9.63341
▁dispose	-9.63387
▁2010	-9.63406
▁seront	-9.63507
▁directement	-9.63719
▁collège	-9.63815
▁code	-9.6387
▁derrière	-9.63978
▁probablement	-9.64017
▁29	-9.64146
▁mur	-9.642
▁()	-9.64522
con	-9.64562
em	-9.64617
▁théorie	-9.6469
▁mari	-9.64749
▁frères	-9.64902
▁née	-9.64902
information	-9.64912
▁bâtiments	-9.65149
▁dieu	-9.65193
vis	-9.65239
▁techniques	-9.65432
▁longueur	-9.65435
▁actuellement	-9.65444
industrie	-9.65469
▁2008	-9.65527
▁el	-9.65624
▁rock	-9.65758
▁cor	-9.65892
▁crée	-9.65969
▁pourrait	-9.6611
▁man	-9.66133
(	-9.6617
▁proximité	-9.66229
▁nouvel	-9.66264
▁couleur	-9.66354
ienne	-9.66511
▁sorti	-9.66524
▁2017,	-9.66608
▁eut	-9.66677
▁peuple	-9.66691
▁concours	-9.66724
▁sociale	-9.66803
▁résultats	-9.6683
▁front	-9.66881
▁courant	-9.66912
mé	-9.6693
édition	-9.67027
▁catholique	-9.67118
▁allemande	-9.67155
ak	-9.67206
▁reprend	-9.6738
-18	-9.67583
▁devait	-9.67665
▁commandant	-9.67674
▁champion	-9.67984
▁reprises	-9.68004
▁puissance	-9.6801
▁revient	-9.68156
▁problèmes	-9.68239
▁kilomètres	-9.68256
qu	-9.68283
▁suivi	-9.68407
▁affaires	-9.68479
▁quelque	-9.68504
vin	-9.68594
▁décision	-9.68642
▁devint	-9.68798
▁relation	-9.68799
▁régions	-9.68846
able	-9.68891
▁permettent	-9.6898
▁supérieure	-9.69074
▁décrit	-9.69078
▁fondée	-9.69145
▁chansons	-9.6921
▁parents	-9.69257
▁militaires	-9.69261
▁lycée	-9.69373
▁bureau	-9.69701
▁permis	-9.6974
▁classique	-9.69773
ol	-9.69799
▁social	-9.69818
▁2012	-9.6999
ic	-9.6999
▁allemands	-9.70038
avait	-9.70117
▁soldats	-9.7013
▁via	-9.70141
im	-9.70301
▁minutes	-9.70384
▁savoir	-9.70437
nes	-9.70521
▁pied	-9.70626
▁chacun	-9.7079
▁neuf	-9.70835
▁2014	-9.70854
▁loin	-9.70943
▁lyon	-9.70973
▁lieux	-9.70974
▁prison	-9.71072
exploitation	-9.71171
car	-9.71229
mann	-9.71287
▁fond	-9.71334
où	-9.7134
▁2007	-9.71402
▁justice	-9.71564
cha	-9.71621
▁magazine	-9.71789
▁commandement	-9.71826
za	-9.71898
▁bassin	-9.71962
ts	-9.71997
▁constitue	-9.72149
▁basse	-9.72193
▁2011	-9.72455
▁for	-9.72559
▁bou	-9.7256
▁seigneur	-9.7259
▁scientifique	-9.72728
▁conduit	-9.7277
▁longtemps	-9.72864
▁utilise	-9.72961
▁intitulé	-9.7313
ons	-9.73149
ins	-9.73151
▁fédération	-9.73205
▁beau	-9.73227
▁propriété	-9.7339
ante	-9.73429
▁canal	-9.73471
▁trouver	-9.73606
▁st	-9.73641
▁figure	-9.73656
▁croix	-9.73672
bi	-9.73755
hôtel	-9.7378
▁mieux	-9.73821
▁compris	-9.73908
▁ancienne	-9.74015
▁revue	-9.7402
▁2006,	-9.74056
▁limite	-9.74066
▁latin	-9.74128
éducation	-9.74156
▁juste	-9.74159
▁thomas	-9.74216
▁bu	-9.74252
voir	-9.74256
▁matière	-9.74258
▁be	-9.74299
▁numéro	-9.74363
den	-9.74389
▁tradition	-9.74394
▁moderne	-9.74433
▁fondé	-9.74452
▁constitution	-9.74638
fi	-9.74648
▁dernières	-9.74649
▁gouverneur	-9.74709
▁super	-9.74746
▁gaz	-9.74766
▁concernant	-9.7486
▁he	-9.74889
▁tableau	-9.75131
af	-9.75159
▁forêt	-9.75286
▁perd	-9.75481
▁or	-9.75547
▁durée	-9.75605
▁semaine	-9.75726
▁statut	-9.75738
min	-9.75785
▁31	-9.7594
afrique	-9.75969
▁entreprises	-9.76047
▁georges	-9.76118
▁(17	-9.76245
▁record	-9.76311
france	-9.7656
jean	-9.7656
▁buts	-9.76581
▁martin	-9.76653
là	-9.76654
▁ver	-9.76667
ise	-9.76712
istes	-9.76835
▁officiellement	-9.76837
▁peintre	-9.7689
gi	-9.77026
▁km	-9.77057
▁tri	-9.77074
cher	-9.77083
avec	-9.77264
▁résistance	-9.77427
▁doute	-9.77471
▁mo	-9.77488
avant	-9.77522
▁ko	-9.77563
économie	-9.77577
▁royale	-9.77593
▁caractère	-9.77602
▁su	-9.77628
▁meilleure	-9.77663
▁veut	-9.77669
▁paix	-9.77742
ze	-9.77802
▁composée	-9.77944
▁train	-9.77979
▁hauteur	-9.78132
▁pi	-9.78246
▁retraite	-9.78273
▁physique	-9.7832
▁sert	-9.78326
▁processus	-9.78331
▁commun	-9.78358
▁navire	-9.78402
▁richard	-9.78466
▁collaboration	-9.7848
ront	-9.7852
▁tours	-9.78536
intérêt	-9.78585
▁dés	-9.78731
tin	-9.78813
▁bibliothèque	-9.79113
▁2009	-9.79185
▁lutte	-9.79213
▁phase	-9.79227
▁construite	-9.79285
▁congrès	-9.79352
ff	-9.79445
▁formes	-9.79524
▁situe	-9.79667
▁arts	-9.79782
▁essentiellement	-9.79797
▁offre	-9.79817
▁james	-9.79853
▁historiques	-9.79883
tor	-9.80035
om	-9.80155
▁2013	-9.80224
▁von	-9.80255
▁william	-9.80317
▁âge	-9.80321
▁comté	-9.8036
▁studio	-9.80398
▁régulièrement	-9.80435
▁fil	-9.80676
▁label	-9.80703
▁îles	-9.80877
▁recherches	-9.81094
▁semaines	-9.81198
▁projets	-9.8128
▁sources	-9.81283
▁bat	-9.81316
▁belle	-9.81328
▁construire	-9.81332
mon	-9.814
▁principe	-9.81454
▁george	-9.81508
▁conseiller	-9.81529
use	-9.81569
attaque	-9.81641
▁ka	-9.81753
8	-9.81799
io	-9.81825
ouverture	-9.81844
▁2015	-9.81944
ya	-9.81946
▁problème	-9.82051
article	-9.82063
ès	-9.82104
▁i	-9.82113
▁berlin	-9.8213
exposition	-9.82154
▁rejoindre	-9.82243
▁traitement	-9.82344
ois	-9.82551
▁eaux	-9.82582
ue	-9.82582
▁iv	-9.82589
▁peinture	-9.82625
▁activité	-9.82664
▁capacité	-9.82717
by	-9.82811
▁difficile	-9.82821
▁locaux	-9.82829
ji	-9.82854
▁reine	-9.82855
lu	-9.82871
tra	-9.83
▁remplacé	-9.83021
▁méthode	-9.83095
existence	-9.83186
▁ta	-9.83219
▁hors	-9.8327
▁nicolas	-9.83463
ina	-9.83523
▁régiment	-9.83655
▁langues	-9.8372
▁critiques	-9.83886
]	-9.83892
▁sœur	-9.83926
berg	-9.83962
▁court	-9.83962
▁littérature	-9.84072
cy	-9.84274
▁andré	-9.84276
jo	-9.84277
ber	-9.84285
▁manque	-9.84371
▁largement	-9.84395
ven	-9.84444
je	-9.84486
ov	-9.84519
▁commencé	-9.84529
ette	-9.84546
▁40	-9.84573
▁éditions	-9.84707
▁lettre	-9.84717
pi	-9.84748
▁mor	-9.84795
▁utilisés	-9.84827
▁faveur	-9.84853
▁connaît	-9.84931
▁député	-9.84965
▁tient	-9.85032
▁2000	-9.8509
▁000	-9.85221
net	-9.85236
▁gros	-9.85264
ron	-9.85347
zo	-9.85388
wa	-9.85503
one	-9.85542
▁2018,	-9.85603
▁rien	-9.85618
▁couleurs	-9.85802
iques	-9.85865
ez	-9.86034
▁fonds	-9.86083
▁réalité	-9.86086
chi	-9.86171
▁arrêté	-9.86218
▁juifs	-9.86259
ay	-9.86325
ut	-9.86345
▁pe	-9.86359
▁textes	-9.86414
▁joué	-9.86438
▁permettre	-9.86462
marie	-9.86649
ju	-9.86682
▁single	-9.867
▁couple	-9.86716
louis	-9.86789
▁liberté	-9.86835
▁japonais	-9.86881
▁suivantes	-9.86899
▁maisons	-9.86944
▁no	-9.86987
▁fa	-9.87047
▁réserve	-9.87077
▁2006	-9.8712
▁guillaume	-9.87123
▁allemagne	-9.8716
▁ba	-9.87324
▁véritable	-9.8738
▁docteur	-9.87385
▁entièrement	-9.87418
▁état	-9.87436
▁nécessaire	-9.87452
▁bernard	-9.87466
▁so	-9.87689
▁montréal	-9.87894
▁»)	-9.87953
men	-9.87963
▁responsable	-9.87972
tre	-9.88046
▁mémoire	-9.88128
▁navires	-9.88247
▁auteurs	-9.88266
▁paroisse	-9.88283
▁parvient	-9.88289
▁écoles	-9.88309
▁mondial	-9.8837
euse	-9.88376
▁char	-9.88417
▁claude	-9.88419
▁ouvert	-9.88425
▁déclare	-9.88429
▁obtenu	-9.88459
▁formé	-9.88501
dy	-9.88583
▁participation	-9.88821
▁futur	-9.88833
ement	-9.8885
▁puisque	-9.8885
▁jeunesse	-9.88863
▁règne	-9.88949
▁telles	-9.88975
▁conception	-9.89036
ham	-9.89085
ino	-9.89111
▁décret	-9.89137
ian	-9.89184
▁2005,	-9.89252
▁vont	-9.89346
▁personnel	-9.89402
gen	-9.89436
accès	-9.8962
▁dollars	-9.89623
▁masse	-9.89647
▁belge	-9.89656
▁temple	-9.8975
▁note	-9.89775
▁peine	-9.89817
rent	-9.89822
▁amis	-9.89829
▁européen	-9.89984
▁autorités	-9.90049
▁lumière	-9.90129
▁élevé	-9.90132
▁cheval	-9.90224
up	-9.90246
▁maladie	-9.90253
▁po	-9.90291
▁!	-9.90353
▁sorte	-9.90418
▁tente	-9.90453
née	-9.90722
pro	-9.90768
▁trans	-9.9079
▁comporte	-9.90924
ers	-9.90968
iens	-9.90969
▁principales	-9.91037
▁religieux	-9.91336
▁sommet	-9.91353
▁britanniques	-9.91366
▁distance	-9.91512
▁candidat	-9.9152
▁termes	-9.91576
▁contient	-9.91601
▁constitué	-9.91615
▁trente	-9.91704
▁nos	-9.91828
▁locale	-9.9184
▁signifie	-9.9191
dame	-9.91958
▁vente	-9.92078
▁mandat	-9.92096
▁sport	-9.92098
installe	-9.9217
▁voiture	-9.92251
▁parce	-9.92301
▁patrimoine	-9.92325
▁noms	-9.92362
esprit	-9.92428
▁trouvent	-9.9249
ap	-9.92523
▁mac	-9.92591
▁catégorie	-9.92705
▁plein	-9.92749
▁portant	-9.92759
▁petites	-9.92873
▁contact	-9.92907
évêque	-9.92939
▁italien	-9.9298
▁conflit	-9.92988
▁maintenant	-9.93024
▁fortement	-9.93192
▁étudiants	-9.93217
amour	-9.93507
▁risque	-9.93578
▁françaises	-9.93593
épisode	-9.93618
▁tu	-9.9362
▁rive	-9.93642
▁cathédrale	-9.9368
▁pa	-9.93795
▁soient	-9.938
▁systèmes	-9.93964
bert	-9.93996
▁bras	-9.94055
▁marc	-9.94061
▁visite	-9.94108
écriture	-9.94196
▁lieutenant	-9.94334
influence	-9.94354
▁nommée	-9.94361
30	-9.94452
▁ca	-9.94538
environnement	-9.94641
▁frontière	-9.94703
▁rang	-9.94725
▁clubs	-9.94749
▁défaite	-9.94766
10	-9.94951
▁sélection	-9.94987
image	-9.95003
▁connaissance	-9.95029
▁résultat	-9.9505
▁américains	-9.95232
▁débute	-9.95261
▁passant	-9.95331
▁cimetière	-9.95359
▁fc	-9.95417
▁familles	-9.9548
architecture	-9.95532
évolution	-9.9558
mes	-9.956
nant	-9.95605
▁élèves	-9.95617
ho	-9.95645
▁crise	-9.95649
rou	-9.95652
▁cinquième	-9.95839
▁tournoi	-9.9584
▁chute	-9.95877
▁travailler	-9.9588
▁filles	-9.96088
▁telle	-9.96097
▁pouvait	-9.96152
▁micro	-9.96159
▁pourtant	-9.96175
indépendance	-9.96229
▁tombe	-9.96421
▁bout	-9.96478
▁découverte	-9.96522
▁concert	-9.96626
▁bal	-9.96701
père	-9.96703
hôpital	-9.96706
▁2016	-9.96707
he	-9.96742
▁température	-9.96784
▁lendemain	-9.96907
▁finit	-9.96932
▁types	-9.96965
▁faisait	-9.9703
altitude	-9.97044
▁dû	-9.97325
▁uniquement	-9.97355
▁modèles	-9.97371
ure	-9.974
han	-9.97549
▁[	-9.97606
▁objets	-9.97701
hiver	-9.97736
▁lesquels	-9.97771
ble	-9.97783
▁publication	-9.97811
▁journaliste	-9.97823
▁somme	-9.97965
▁propres	-9.97965
usage	-9.98189
▁pression	-9.98248
▁hu	-9.98314
▁civile	-9.98315
▁armes	-9.98459
▁soviétique	-9.98472
▁2005	-9.98664
▁chasse	-9.98794
▁climat	-9.99044
op	-9.99076
▁pilote	-9.99193
▁naturel	-9.99426
lan	-9.99457
▁ouvrage	-9.99531
▁diffusion	-9.99549
tel	-9.99672
▁science	-9.9972
▁appel	-9.99759
▁2000,	-9.99777
▁saisons	-9.99826
▁former	-9.9986
▁ar	-9.99878
▁concept	-9.99888
agriculture	-9.99892
▁daniel	-9.99943
▁communication	-9.99966
▁local	-10.0007
▁débuts	-10.0013
▁vin	-10.0019
études	-10.002
▁cha	-10.002
▁rapide	-10.0022
7	-10.0025
▁sites	-10.0028
▁contrairement	-10.003
▁édition	-10.0037
▁thème	-10.0039
▁juge	-10.004
ano	-10.0043
▁originaire	-10.005
▁jo	-10.0061
▁ja	-10.0068
▁armées	-10.0069
▁propriétaire	-10.007
ite	-10.0074
tion	-10.0076
▁profit	-10.0076
▁pan	-10.0082
▁participer	-10.0083
ey	-10.0084
▁monte	-10.0086
▁2004,	-10.0103
▁pouvant	-10.0103
▁restauration	-10.0104
▁riche	-10.0104
▁journée	-10.0108
▁montagne	-10.0126
▁correspond	-10.0131
▁disque	-10.0134
issue	-10.0142
▁accord	-10.0145
ini	-10.0148
architecte	-10.0167
▁sou	-10.0168
▁procès	-10.0174
▁chinois	-10.0176
président	-10.0177
▁flotte	-10.0177
▁ho	-10.0182
▁philosophie	-10.0186
▁ouvrages	-10.0204
▁artistique	-10.0206
▁district	-10.0212
zi	-10.0213
▁commande	-10.0216
▁banque	-10.0217
▁développé	-10.0223
▁can	-10.0225
▁découvre	-10.0234
▁laisse	-10.0237
▁relativement	-10.0241
▁2004	-10.0241
gan	-10.0241
▁lancé	-10.0246
▁changement	-10.0248
ser	-10.0251
▁séries	-10.0256
▁utilisant	-10.0259
ah	-10.0261
▁fondateur	-10.0262
▁fonde	-10.0265
▁michael	-10.0266
▁présenté	-10.0269
▁gi	-10.0273
▁formule	-10.0275
▁vieux	-10.0276
▁fleuve	-10.0277
▁poursuit	-10.0283
ab	-10.0287
ille	-10.0294
arc	-10.0298
▁composition	-10.0305
▁devenue	-10.0307
artiste	-10.0308
▁suivants	-10.0313
ain	-10.0318
▁autant	-10.0321
infanterie	-10.0327
▁nations	-10.0329
▁développe	-10.0333
▁réaliser	-10.034
20	-10.0343
▁ceci	-10.0347
▁réforme	-10.0351
▁demeure	-10.0353
eurs	-10.0365
bar	-10.0378
▁publics	-10.038
ong	-10.0385
▁distribution	-10.0386
gé	-10.0393
▁douze	-10.0397
ence	-10.0402
▁jardin	-10.0404
▁ber	-10.0405
ker	-10.0409
ius	-10.041
▁ferme	-10.042
non	-10.0421
▁dirige	-10.0421
▁complexe	-10.0423
ais	-10.0431
▁bruxelles	-10.0432
▁2017	-10.0436
▁choisi	-10.0439
▁score	-10.0439
▁moyens	-10.0445
▁importants	-10.046
expression	-10.0462
▁printemps	-10.047
▁records	-10.0473
▁médaille	-10.0475
▁promotion	-10.0493
amérique	-10.0493
▁chevalier	-10.0495
▁tribunal	-10.0496
▁parcours	-10.0499
▁officiel	-10.0506
tour	-10.0512
ep	-10.0514
ns	-10.052
orient	-10.0523
ance	-10.053
▁italie	-10.053
▁télé	-10.0536
▁bel	-10.0541
▁explique	-10.0553
▁mains	-10.0555
can	-10.0559
▁réalisation	-10.0559
▁marche	-10.0566
court	-10.0573
▁chi	-10.0581
▁voire	-10.0582
▁animaux	-10.0582
▁enfant	-10.0586
-1	-10.0602
▁?	-10.061
▁régional	-10.0611
▁victoires	-10.062
▁mots	-10.0628
anne	-10.0639
her	-10.064
ling	-10.0641
my	-10.0655
pour	-10.0659
▁romain	-10.066
▁monastère	-10.0661
▁blanche	-10.0662
engage	-10.0665
dont	-10.067
end	-10.0673
▁tué	-10.0686
▁vote	-10.0686
▁reprise	-10.0697
▁opérations	-10.0704
▁60	-10.0705
▁conférence	-10.0709
▁poids	-10.071
étend	-10.0711
▁développer	-10.0713
▁libération	-10.0718
▁domaines	-10.0722
iser	-10.073
▁gu	-10.0742
▁scientifiques	-10.0748
orchestre	-10.0752
▁retourne	-10.0753
▁portes	-10.0763
▁envoyé	-10.0769
▁don	-10.0769
▁rené	-10.077
▁médecine	-10.077
▁carte	-10.0772
absence	-10.0779
▁monument	-10.0788
▁1990,	-10.079
accord	-10.0807
ica	-10.0808
enfant	-10.0809
ten	-10.0809
▁inscrit	-10.081
opération	-10.0811
dis	-10.0811
▁auparavant	-10.0815
nie	-10.0816
▁contexte	-10.0818
▁vite	-10.0824
▁grec	-10.0824
▁peter	-10.0828
▁(),	-10.0831
▁unités	-10.0831
▁issu	-10.0834
▁remporté	-10.0844
▁parle	-10.0852
▁effectue	-10.0857
▁organisé	-10.0862
▁naturelle	-10.0868
▁réussit	-10.0876
dit	-10.0877
▁perdu	-10.0877
affaire	-10.0882
tes	-10.0883
euros	-10.0884
▁déroule	-10.0886
▁fête	-10.0889
▁bourg	-10.0892
▁championnats	-10.0894
▁professionnel	-10.0912
▁har	-10.0916
▁1990	-10.0925
40	-10.0926
▁annoncé	-10.0927
oise	-10.0928
▁quitter	-10.093
établissement	-10.0933
lon	-10.0934
▁seuls	-10.0943
▁vous	-10.0946
▁événements	-10.0949
▁municipal	-10.0952
▁gens	-10.0963
ang	-10.0968
▁initialement	-10.0969
pp	-10.0975
▁traditionnelle	-10.0994
▁tôt	-10.0998
á	-10.0998
▁désigne	-10.1002
▁socialiste	-10.1011
▁noire	-10.1025
ive	-10.1029
▁fusion	-10.1033
▁promu	-10.1038
all	-10.1049
ski	-10.1054
▁maria	-10.1055
sol	-10.1056
▁articles	-10.1058
▁dite	-10.1059
0	-10.1062
occupation	-10.107
opéra	-10.1073
▁occupe	-10.1075
▁consiste	-10.1097
rin	-10.1101
▁cent	-10.1107
tz	-10.1117
▁matériel	-10.1126
▁salon	-10.1133
▁besoin	-10.1135
ran	-10.1138
ologie	-10.1154
nier	-10.1154
▁anciennes	-10.1158
▁propos	-10.1158
▁produire	-10.1174
▁albert	-10.1178
▁voies	-10.1179
▁participé	-10.119
ps	-10.119
▁vivre	-10.1201
▁certaine	-10.1213
▁actions	-10.1223
▁monuments	-10.1223
▁los	-10.1227
arts	-10.1233
▁beaux	-10.1233
▁ru	-10.1244
way	-10.1245
▁partage	-10.1248
▁professionnelle	-10.125
▁officielle	-10.1252
ng	-10.1252
ière	-10.1254
▁religion	-10.1255
▁convention	-10.1279
▁maurice	-10.1285
▁école	-10.1286
▁vision	-10.1297
▁ordres	-10.1298
ria	-10.1307
tique	-10.1311
▁histoire	-10.1313
▁reconnaissance	-10.1317
▁romaine	-10.1318
▁diocèse	-10.1318
▁communiste	-10.1321
bourg	-10.1324
▁dirigé	-10.1341
ens	-10.1341
▁municipalité	-10.1346
▁association	-10.1349
we	-10.1352
▁post	-10.136
▁représentation	-10.136
▁vivant	-10.1368
▁sch	-10.1375
▁pologne	-10.1375
ig	-10.1376
▁puisqu	-10.138
ek	-10.1382
▁proches	-10.1383
▁importantes	-10.1386
▁ressources	-10.1387
▁sang	-10.1393
9	-10.1395
▁électrique	-10.1396
▁épisodes	-10.1399
<	-10.1399
bu	-10.14
▁espèce	-10.1401
oc	-10.1406
▁députés	-10.1409
▁200	-10.1431
▁commercial	-10.1442
▁0	-10.1449
let	-10.145
usine	-10.1451
▁bé	-10.1451
▁vienne	-10.1452
dans	-10.1455
ire	-10.1455
sch	-10.1456
caractéristiques	-10.1463
▁aller	-10.1465
▁totale	-10.1469
▁lu	-10.1471
í	-10.1474
▁internet	-10.1482
ane	-10.1482
▁marseille	-10.1482
▁air	-10.1485
▁publiée	-10.1487
50	-10.1497
▁légion	-10.1499
fer	-10.1501
importance	-10.1504
arrière	-10.1505
ques	-10.1508
▁volonté	-10.1527
vo	-10.1527
▁poly	-10.1542
▁épisode	-10.1542
abbé	-10.1546
▁refuse	-10.1561
▁musicale	-10.1561
▁gagne	-10.1563
▁ici	-10.1567
▁franco	-10.1582
▁récit	-10.1584
paul	-10.1594
▁min	-10.1598
su	-10.1603
▁considère	-10.1603
ouvrage	-10.161
▁reconnu	-10.1617
emploi	-10.1622
▁meilleurs	-10.1623
unité	-10.1628
▁croissance	-10.1631
vers	-10.164
▁missions	-10.1644
lot	-10.1644
▁complète	-10.1646
ix	-10.165
▁raisons	-10.1657
mp	-10.1658
aires	-10.1662
▁règles	-10.1673
analyse	-10.1676
▁ro	-10.1676
▁obtenir	-10.1679
so	-10.1681
▁indique	-10.1681
▁culte	-10.1682
▁possibilité	-10.1685
univers	-10.1687
▁article	-10.1687
étranger	-10.1691
exception	-10.1694
▁documents	-10.17
ren	-10.1702
▁morts	-10.1703
▁four	-10.171
lieu	-10.1711
opposition	-10.1723
▁rose	-10.1724
▁2003,	-10.1734
▁mouvements	-10.175
teur	-10.1755
▁mc	-10.1758
▁villages	-10.1758
▁mène	-10.1759
▁ju	-10.1771
▁attaque	-10.179
▁titulaire	-10.179
▁étape	-10.1798
▁spectacle	-10.18
▁1980	-10.1802
▁mé	-10.1808
▁plantes	-10.1812
▁soleil	-10.1813
isé	-10.1814
hi	-10.1818
delà	-10.1819
▁toulouse	-10.1822
▁réalisée	-10.1822
ami	-10.1826
▁atteindre	-10.1826
▁différence	-10.1826
sh	-10.1831
▁chevaux	-10.1835
▁rou	-10.1836
▁considérée	-10.1836
▁mesures	-10.1837
▁bus	-10.1838
▁médecin	-10.1838
ach	-10.1854
▁plateau	-10.1857
▁informations	-10.1863
har	-10.1866
▁luc	-10.1866
▁2002,	-10.1879
▁christ	-10.1894
▁littéraire	-10.1897
▁fabrication	-10.1901
▁alexandre	-10.1906
▁2002	-10.1912
▁1970	-10.1916
▁2001	-10.1927
▁1980,	-10.1933
▁façade	-10.1934
gue	-10.1934
agence	-10.1936
▁concerts	-10.1937
▁sub	-10.1937
▁2003	-10.1938
▁roger	-10.1938
▁étudie	-10.1941
▁direct	-10.1943
▁volume	-10.1944
▁2018	-10.195
▁napoléon	-10.1961
ché	-10.1962
▁soir	-10.1971
▁respectivement	-10.1972
ari	-10.1975
▁combats	-10.1978
▁présidence	-10.1983
▁plans	-10.1985
▁décidé	-10.1987
▁mu	-10.1989
▁cou	-10.1996
▁progressivement	-10.1999
▁valeurs	-10.2003
▁immédiatement	-10.2005
▁rares	-10.2008
▁lois	-10.2012
aéroport	-10.2012
▁chant	-10.2022
▁questions	-10.2026
tant	-10.2033
▁concerne	-10.2035
▁change	-10.2043
▁couronne	-10.2043
▁ch	-10.2043
▁circonscription	-10.206
▁débit	-10.2063
▁moscou	-10.2063
bé	-10.2071
▁villa	-10.2077
▁chanteur	-10.208
sé	-10.209
▁vent	-10.2095
▁prit	-10.2102
▁compose	-10.2102
▁simplement	-10.2103
12	-10.2104
ara	-10.2108
▁hommage	-10.2117
▁apprend	-10.2122
▁cycle	-10.2127
▁médias	-10.2131
▁murs	-10.2133
iers	-10.2135
arrêt	-10.2137
▁décès	-10.2137
oli	-10.2139
▁web	-10.214
▁yeux	-10.2143
▁circuit	-10.215
▁californie	-10.215
out	-10.215
▁parler	-10.2154
res	-10.2156
▁intègre	-10.2162
cal	-10.2174
▁génération	-10.2175
tif	-10.218
▁ouverte	-10.2181
bretagne	-10.2184
▁vaste	-10.2187
appel	-10.2191
▁diffusée	-10.2199
ag	-10.2202
▁majeure	-10.2206
▁marcel	-10.2213
▁red	-10.2215
▁olympiques	-10.2216
»	-10.2219
▁bleu	-10.222
port	-10.223
è	-10.2241
acteur	-10.2247
▁signé	-10.2247
ayant	-10.2258
▁accueille	-10.2258
automne	-10.2283
▁actuel	-10.2285
▁basé	-10.2289
▁final	-10.2297
▁henry	-10.2298
▁comédie	-10.2301
extérieur	-10.2303
▁cabinet	-10.2316
▁déclaré	-10.2317
▁albums	-10.2318
▁réunion	-10.2319
étant	-10.2321
▁naît	-10.2328
artillerie	-10.2332
▁bordeaux	-10.2344
ist	-10.2353
▁branche	-10.2356
cho	-10.2364
▁populations	-10.2369
ssant	-10.2371
▁ri	-10.238
ira	-10.2384
sk	-10.2385
▁sociétés	-10.2385
▁disponible	-10.2389
▁colonel	-10.2391
▁galerie	-10.2393
▁véhicules	-10.2396
tan	-10.2407
▁placé	-10.2409
▁christian	-10.2412
eaux	-10.2417
autorité	-10.2419
+	-10.2423
▁revanche	-10.2429
autriche	-10.243
▁connaître	-10.2431
▁pêche	-10.2445
ris	-10.2451
▁organise	-10.2462
▁conçu	-10.2464
▁=	-10.2465
▁servi	-10.2494
vie	-10.2499
▁effets	-10.2499
▁1999	-10.25
▁arrière	-10.2519
▁siècles	-10.253
▁2001,	-10.2539
80	-10.2542
gar	-10.2544
▁servir	-10.2545
▁tir	-10.2545
▁niveaux	-10.2546
▁établi	-10.2553
illon	-10.2561
▁aura	-10.2561
▁conserve	-10.2563
▁résidence	-10.2572
▁tiers	-10.2574
▁léon	-10.2576
affaires	-10.2581
▁licence	-10.2587
▁art	-10.2587
▁massif	-10.259
▁associé	-10.2593
ste	-10.2628
▁genève	-10.2641
▁définitivement	-10.2644
▁programmes	-10.2647
gon	-10.2649
▁victimes	-10.2651
▁tra	-10.2652
▁world	-10.2655
▁prévu	-10.2657
▁présidentielle	-10.2657
ster	-10.2658
▁nomme	-10.2658
▁impériale	-10.2659
▁bio	-10.2668
▁traverse	-10.2671
▁bronze	-10.2672
iz	-10.2673
off	-10.2678
▁chacune	-10.2679
pas	-10.268
▁héros	-10.2685
▁poète	-10.2686
orléans	-10.2688
▁bretagne	-10.2692
▁ga	-10.2693
▁économiques	-10.2697
▁machine	-10.2703
▁humaine	-10.2705
nay	-10.2712
▁diplôme	-10.2713
▁lien	-10.2719
ret	-10.2719
▁pen	-10.272
▁angleterre	-10.272
▁pointe	-10.2722
▁cartes	-10.2722
▁frédéric	-10.2728
▁européens	-10.2731
▁présents	-10.2731
▁auteur	-10.2732
▁z	-10.2736
expérience	-10.2738
▁représentants	-10.274
▁locales	-10.2747
▁faite	-10.2749
étaient	-10.2755
▁ouvre	-10.2762
▁1970,	-10.2765
ud	-10.2767
▁définition	-10.2769
dia	-10.2772
▁biens	-10.2773
▁pic	-10.2774
▁appartient	-10.2775
▁néo	-10.2776
▁faculté	-10.2781
▁entreprise	-10.2789
▁officier	-10.2791
▁donnant	-10.2801
▁appartenant	-10.2803
▁loire	-10.2807
11	-10.2808
▁affirme	-10.2808
▁rencontres	-10.2811
▁fou	-10.2812
▁originale	-10.2814
▁espagnol	-10.2817
▁dessin	-10.2818
▁territoires	-10.2819
▁suivre	-10.2823
▁nu	-10.2826
gu	-10.2829
▁versions	-10.2846
sse	-10.2847
agglomération	-10.2852
line	-10.2867
▁race	-10.2867
60	-10.2877
fe	-10.2878
▁distingue	-10.2881
▁tenu	-10.2884
▁tar	-10.2891
▁superficie	-10.2893
▁dépend	-10.2902
▁élus	-10.2902
▁porter	-10.2907
bel	-10.291
▁sociales	-10.2928
▁retrouver	-10.2929
cu	-10.2929
baptiste	-10.2934
▁gr	-10.2934
▁correspondant	-10.2945
▁forment	-10.2948
▁80	-10.2953
▁compositeur	-10.2954
▁liaison	-10.296
▁repris	-10.2969
enregistrement	-10.2969
comme	-10.2972
▁te	-10.2977
▁prennent	-10.2979
▁1960	-10.2982
▁tourne	-10.2982
▁marqué	-10.2984
effet	-10.2992
▁totalement	-10.2993
▁rendu	-10.2994
▁fe	-10.3007
▁sé	-10.3007
▁victor	-10.301
▁piano	-10.3015
▁dispute	-10.3016
19	-10.3017
▁coût	-10.302
major	-10.3023
▁chemins	-10.3034
▁matin	-10.3034
tur	-10.3043
▁italienne	-10.3044
del	-10.305
▁grade	-10.3054
▁angeles	-10.3057
▁révèle	-10.3059
▁courte	-10.3062
application	-10.3064
ph	-10.3067
▁phénomène	-10.3067
▁assure	-10.307
exécution	-10.3071
ney	-10.3072
▁protéger	-10.3072
▁contraire	-10.3074
▁lesquelles	-10.3077
15	-10.3078
▁venir	-10.3083
▁photo	-10.3087
▁acteurs	-10.3092
▁vert	-10.3096
▁wa	-10.31
▁utiliser	-10.3101
▁%)	-10.3101
▁langage	-10.3105
elli	-10.3108
▁législatives	-10.3112
▁condition	-10.3113
▁contenu	-10.3115
▁chose	-10.3115
▁standard	-10.3115
▁difficultés	-10.3116
▁chœur	-10.3124
▁utilisées	-10.3128
▁quantité	-10.313
▁antoine	-10.3136
▁agricole	-10.314
san	-10.3153
▁auto	-10.3154
▁piste	-10.3154
▁simon	-10.3159
▁producteur	-10.3163
din	-10.3175
▁mono	-10.3176
françois	-10.3184
▁établissements	-10.3186
▁candidats	-10.3186
ru	-10.3187
▁classé	-10.3189
▁mention	-10.3191
▁réseaux	-10.3206
ici	-10.3209
▁ait	-10.3217
▁fédéral	-10.3218
ières	-10.3222
▁conduite	-10.3223
ó	-10.3225
▁réalisateur	-10.3226
▁consacré	-10.3229
az	-10.3233
▁(16	-10.3238
▁mit	-10.3243
▁cardinal	-10.3251
▁majeur	-10.3252
heure	-10.3256
▁destruction	-10.3257
▁anglaise	-10.3257
▁condamné	-10.3257
▁culturel	-10.3258
▁fi	-10.326
▁inspiré	-10.3266
▁discours	-10.3266
▁mélange	-10.3266
▁dynastie	-10.3268
▁blessé	-10.3269
inter	-10.3269
▁solution	-10.3272
▁jan	-10.3275
▁bre	-10.3278
▁baron	-10.3279
bou	-10.3283
▁amérique	-10.3284
▁idées	-10.3285
objectif	-10.3292
▁solo	-10.3297
▁consommation	-10.3297
dou	-10.3303
▁destiné	-10.3306
écrivain	-10.331
▁500	-10.3313
▁av	-10.3314
▁installé	-10.3319
▁performance	-10.3319
▁mille	-10.3322
édifice	-10.3323
▁sièges	-10.3324
▁traduit	-10.3326
▁issus	-10.3328
▁jules	-10.333
▁actuelle	-10.3335
▁conséquence	-10.3335
▁sujets	-10.3343
▁prisonniers	-10.3344
▁victime	-10.335
70	-10.3355
▁city	-10.3356
dor	-10.3356
▁sociaux	-10.3357
▁réponse	-10.3358
▁guy	-10.3359
▁actif	-10.3368
▁appelés	-10.337
▁entier	-10.3376
martin	-10.3377
▁cu	-10.3386
▁cercle	-10.3386
▁réaction	-10.3389
ttes	-10.3391
ev	-10.34
ok	-10.341
▁statue	-10.3411
▁détruit	-10.3413
▁trône	-10.3423
▁allant	-10.3428
inde	-10.3429
▁vrai	-10.3437
▁action	-10.3437
▁donnée	-10.3444
▁top	-10.3446
▁fonctionnement	-10.3447
▁légende	-10.3461
dessous	-10.3465
installer	-10.3466
lis	-10.3472
▁scènes	-10.3472
▁star	-10.3476
▁dirigée	-10.3477
bon	-10.3483
▁désigné	-10.3486
▁voitures	-10.3489
cer	-10.3494
▁précise	-10.3505
van	-10.351
▁jazz	-10.3513
ali	-10.3513
▁semi	-10.3513
onde	-10.3517
▁privé	-10.3521
▁parallèle	-10.3522
▁numérique	-10.3524
▁circulation	-10.3525
ani	-10.3531
ung	-10.3534
▁ram	-10.3536
▁francs	-10.3545
ies	-10.3562
▁moteurs	-10.3562
▁précédente	-10.3564
▁archives	-10.3573
▁méthodes	-10.3575
▁baie	-10.3578
and	-10.358
'«	-10.358
met	-10.3581
nd	-10.3586
▁raconte	-10.3594
▁anne	-10.3596
▁notion	-10.36
▁religieuse	-10.3607
▁1999,	-10.3611
ón	-10.3611
illy	-10.3613
▁pol	-10.3618
▁étrangères	-10.3623
▁auquel	-10.3626
obtenir	-10.3627
▁comptait	-10.3627
▁routes	-10.3628
▁perte	-10.3635
ros	-10.364
avion	-10.3641
auto	-10.3648
▁dis	-10.365
▁disparu	-10.3654
1,	-10.3654
kin	-10.3656
axe	-10.3661
ate	-10.3661
▁profondeur	-10.3669
ford	-10.3672
cé	-10.3675
▁franc	-10.3679
od	-10.368
▁influence	-10.3691
duc	-10.3696
▁cal	-10.3697
initiative	-10.3697
▁démocratique	-10.3698
▁dehors	-10.37
▁trains	-10.3703
▁datant	-10.3704
▁vierge	-10.3707
▁mines	-10.3715
tier	-10.3716
▁domicile	-10.3731
utiliser	-10.3752
▁musiciens	-10.3755
isée	-10.376
▁indépendant	-10.3768
pin	-10.3769
▁canon	-10.3774
▁comportement	-10.3774
▁brésil	-10.3777
▁vainqueur	-10.3778
▁sait	-10.3785
▁étude	-10.379
▁hall	-10.3795
90	-10.3795
▁professionnels	-10.3795
▁église	-10.38
fr	-10.3808
▁().	-10.3808
igny	-10.3809
ables	-10.382
▁complet	-10.3822
▁universitaire	-10.3826
deux	-10.383
▁désir	-10.3833
ori	-10.3836
▁basée	-10.3841
ole	-10.3841
▁menace	-10.385
š	-10.3851
ème	-10.3854
▁porté	-10.3856
▁pleine	-10.3856
▁trafic	-10.3858
▁portée	-10.3859
▁1998	-10.3859
▁princesse	-10.386
▁nantes	-10.3864
▁sauf	-10.3866
luc	-10.3866
▁tentative	-10.3873
bus	-10.3873
ball	-10.3878
uff	-10.3881
▁évolue	-10.3885
▁her	-10.3887
▁mou	-10.39
▁pop	-10.39
▁afrique	-10.3911
amiral	-10.3913
armes	-10.3918
▁introduit	-10.3918
▁2010.	-10.3919
▁chapitre	-10.392
nel	-10.3921
▁classes	-10.3924
vel	-10.3932
00	-10.3933
▁musical	-10.3938
ade	-10.3958
▁présenter	-10.396
▁alliés	-10.3962
▁disposition	-10.3964
sen	-10.3968
via	-10.3968
rac	-10.3986
▁format	-10.4003
▁rester	-10.4005
▁appelle	-10.4006
▁trouvé	-10.4012
▁civil	-10.4012
▁feuilles	-10.4013
pon	-10.4013
▁capable	-10.4015
anglais	-10.4018
▁strasbourg	-10.4022
ateur	-10.4024
▁accompagné	-10.4028
▁associations	-10.4028
▁music	-10.4031
▁1960,	-10.4032
▁parallèlement	-10.4032
▁salles	-10.4035
▁accepte	-10.4039
▁constituée	-10.4048
▁restent	-10.4052
▁ordre	-10.4056
▁remplacer	-10.4063
▁vis	-10.4071
▁mark	-10.4071
▁bro	-10.4073
espèce	-10.4086
▁publiques	-10.4091
25	-10.4094
▁laisser	-10.4096
▁engagé	-10.4097
▁maximum	-10.4108
▁planète	-10.4111
-17	-10.4113
▁estime	-10.4114
▁complètement	-10.4116
▁propriétés	-10.4117
▁my	-10.4117
▁prises	-10.4126
▁succession	-10.4128
▁comment	-10.4128
▁dire	-10.4132
actuelle	-10.4137
▁récemment	-10.4138
▁découvert	-10.4138
▁trouvait	-10.4141
arrondissement	-10.4144
▁2012.	-10.4148
▁cellules	-10.4153
▁gamme	-10.4156
▁multiples	-10.4161
▁évêque	-10.4164
▁intitulée	-10.4164
océan	-10.4166
▁black	-10.4167
▁exemplaires	-10.417
▁gar	-10.4178
▁places	-10.4182
grand	-10.4184
▁humains	-10.4193
▁images	-10.4194
▁couverture	-10.4194
▁far	-10.4194
▁secondaire	-10.4195
▁officiers	-10.4195
▁cérémonie	-10.4195
▁budget	-10.4208
▁dimanche	-10.4216
▁2015.	-10.422
▁unité	-10.4225
▁églises	-10.4227
▁seigneurie	-10.4231
▁2014.	-10.4233
▁coopération	-10.4236
▁west	-10.4236
hu	-10.4237
▁transfert	-10.424
▁transports	-10.4242
▁savoie	-10.4244
▁thèse	-10.4244
▁russes	-10.4251
vé	-10.4252
era	-10.4252
▁lecture	-10.4255
▁milan	-10.4259
▁chicago	-10.4266
▁jeanne	-10.4269
▁sortir	-10.427
▁seine	-10.4271
▁communautés	-10.4271
office	-10.4272
▁manuel	-10.428
▁traduction	-10.4289
▁espagnole	-10.4292
▁poésie	-10.4293
▁éviter	-10.4294
tt	-10.4296
▁légèrement	-10.4298
asie	-10.4303
▁active	-10.4305
▁pose	-10.4307
▁chefs	-10.4311
▁contenant	-10.4315
tri	-10.4317
▁conservé	-10.4321
ice	-10.4327
▁mêmes	-10.4332
▁adjoint	-10.4335
pré	-10.4339
▁prenant	-10.4345
▁lancer	-10.4346
▁connus	-10.4348
▁jaune	-10.4353
▁facilement	-10.436
▁vaisseau	-10.4368
▁brigade	-10.4369
▁travaillé	-10.4371
▁laissé	-10.438
▁écrits	-10.438
▁désert	-10.4382
▁preuve	-10.4384
▁deviendra	-10.4392
▁1995	-10.4403
ide	-10.4408
élève	-10.441
▁chanteuse	-10.4411
▁laurent	-10.4419
▁envers	-10.442
▁test	-10.4423
▁personnalités	-10.4425
▁sixième	-10.4433
▁forêts	-10.4435
▁rugby	-10.4438
angle	-10.4442
huile	-10.4442
▁coups	-10.4445
▁page	-10.4445
ob	-10.4447
▁1998,	-10.4449
iv	-10.4449
ô	-10.4451
▁ge	-10.4451
▁prêtre	-10.4455
▁multi	-10.4456
cl	-10.4457
anti	-10.4459
16	-10.4459
▁romans	-10.4464
▁précédent	-10.4467
mu	-10.4467
▁»).	-10.447
épreuve	-10.4472
ène	-10.4474
▁josé	-10.4476
▁organisée	-10.4477
ec	-10.4481
▁calcul	-10.4488
▁arabe	-10.4491
â	-10.4493
▁quinze	-10.4495
cus	-10.4503
ray	-10.4503
▁vendu	-10.4504
▁2011.	-10.4506
ita	-10.4507
années	-10.4509
mère	-10.4509
▁maréchal	-10.4512
▁mettant	-10.4515
▁1997	-10.4517
▁besoins	-10.452
▁washington	-10.452
aménagement	-10.4531
ange	-10.4543
field	-10.4547
17	-10.4549
▁montée	-10.4561
▁battu	-10.4562
▁étrangers	-10.4565
▁tom	-10.4565
▁interprète	-10.4569
▁réussi	-10.4576
▁all	-10.4577
▁matériaux	-10.4582
▁caractéristique	-10.4594
▁pouvoirs	-10.4594
▁laboratoire	-10.4601
...)	-10.4606
ola	-10.4606
▁tendance	-10.4611
▁privée	-10.4612
▁45	-10.4617
▁espace	-10.4619
▁70	-10.4621
▁constituent	-10.4631
animation	-10.4636
▁portent	-10.4638
▁écrite	-10.4638
gin	-10.464
▁souhaite	-10.4647
nu	-10.465
▁cherche	-10.4662
▁tournage	-10.4665
▁champions	-10.4665
▁choisit	-10.4668
▁document	-10.4669
▁plaine	-10.4671
▁proposition	-10.4671
▁enregistré	-10.4674
▁comprenant	-10.4676
équipage	-10.4676
▁primaire	-10.4677
▁ban	-10.468
▁ter	-10.468
▁tuer	-10.4683
▁retrait	-10.4687
▁sénat	-10.4691
ries	-10.4691
ium	-10.4703
illa	-10.4704
▁partis	-10.4704
▁visant	-10.4706
▁nef	-10.4714
▁performances	-10.4716
▁pat	-10.4716
▁alain	-10.4718
▁couvent	-10.472
kov	-10.4722
▁échange	-10.4724
loire	-10.4727
▁secondes	-10.4728
die	-10.473
▁occidentale	-10.473
▁internationales	-10.473
▁suède	-10.4732
pé	-10.4737
élevage	-10.4737
▁2009.	-10.4738
ges	-10.4746
▁élément	-10.4747
▁structures	-10.4747
▁réduit	-10.4748
▁lancement	-10.4751
ça	-10.4755
▁mathématiques	-10.4759
án	-10.4762
fils	-10.4765
▁jésus	-10.477
▁lié	-10.477
ida	-10.4774
ada	-10.4775
invasion	-10.478
▁pratiques	-10.4785
▁préparation	-10.4789
temps	-10.4793
▁35	-10.4796
ban	-10.4801
▁1996	-10.4805
▁onze	-10.481
▁quotidien	-10.4811
▁vaut	-10.4813
mêmes	-10.4813
impression	-10.4816
▁cro	-10.4817
lia	-10.4817
▁li	-10.4819
▁spécifique	-10.4819
gy	-10.4828
rat	-10.4828
emplacement	-10.4831
▁technologie	-10.4844
échelle	-10.4849
▁ros	-10.4849
▁(2	-10.4863
▁tourisme	-10.487
bre	-10.4874
▁bor	-10.488
▁thé	-10.4886
▁portugal	-10.4886
▁organisation	-10.4892
▁montré	-10.4893
▁soutient	-10.4893
▁scrutin	-10.4896
–	-10.4899
▁hautes	-10.4902
▁règle	-10.4906
▁reprendre	-10.491
▁nécessaires	-10.491
▁dimension	-10.491
▁2008.	-10.4923
▁2013.	-10.4923
▁diffusé	-10.4925
▁na	-10.4931
▁gagner	-10.4935
aujourd	-10.4939
nne	-10.4939
▁abrite	-10.4941
fort	-10.4947
▁religieuses	-10.4948
▁véhicule	-10.4951
tis	-10.4954
our	-10.4959
▁laissant	-10.496
▁secret	-10.496
▁modernes	-10.4962
▁revenir	-10.4962
▁corée	-10.4969
▁révolte	-10.497
▁rédaction	-10.4971
21	-10.4975
▁collections	-10.4975
offre	-10.498
▁évoque	-10.498
▁madrid	-10.4986
▁secondaires	-10.4987
ella	-10.4988
▁sports	-10.4988
apparition	-10.4992
▁machines	-10.4994
▁mécanique	-10.4996
▁bourgogne	-10.4996
▁jusque	-10.5003
yer	-10.5012
enquête	-10.5013
▁remonte	-10.5014
▁liés	-10.5015
ification	-10.5016
▁expérience	-10.5016
▁jack	-10.5022
▁capital	-10.5026
▁million	-10.5032
▁juive	-10.5036
▁frais	-10.5045
▁similaire	-10.5047
▁noter	-10.5053
▁forteresse	-10.5061
24	-10.5062
▁comp	-10.5064
13	-10.5068
▁présentent	-10.5069
ken	-10.507
ary	-10.5076
▁bientôt	-10.5076
gre	-10.5084
ei	-10.5085
35	-10.5095
▁goût	-10.5099
▁enseigne	-10.5099
▁interne	-10.5102
▁directe	-10.5113
▁1994	-10.5113
-2	-10.5123
▁canons	-10.5124
ram	-10.5124
▁plante	-10.5126
mas	-10.513
▁occupé	-10.5141
écart	-10.5145
▁objectif	-10.5149
▁mini	-10.5149
▁cre	-10.5156
▁manche	-10.5156
▁deviennent	-10.5157
lier	-10.5159
▁répartition	-10.5159
▁baisse	-10.516
▁dos	-10.5163
▁puits	-10.5165
▁espagne	-10.5173
▁frank	-10.5176
pos	-10.5188
▁menée	-10.5195
actuel	-10.5195
lant	-10.5198
og	-10.5199
▁provenant	-10.5199
▁élevée	-10.52
▁institutions	-10.5204
▁disparition	-10.5208
alliance	-10.5209
▁japonaise	-10.5213
yn	-10.5216
77	-10.5222
ves	-10.5222
▁1950	-10.5222
isse	-10.5223
▁1,	-10.5225
dan	-10.5228
▁subit	-10.5235
▁généraux	-10.5235
▁1992	-10.5241
▁humain	-10.5245
▁table	-10.525
▁ab	-10.5251
ign	-10.5252
▁réel	-10.526
▁raymond	-10.5266
▁métal	-10.5268
▁essais	-10.5268
2,	-10.5273
▁stations	-10.5277
new	-10.5278
▁moines	-10.5278
ll	-10.5285
▁visible	-10.5287
ans	-10.5288
▁viennent	-10.5291
▁montagnes	-10.5295
▁2019,	-10.5296
ines	-10.5299
▁blancs	-10.5301
▁mel	-10.5303
abri	-10.5303
ib	-10.5304
▁européennes	-10.5304
▁aide	-10.5306
▁patrick	-10.5312
▁symbole	-10.5316
▁montant	-10.5318
irlande	-10.5321
▁liée	-10.5321
▁sc	-10.5325
▁cavalerie	-10.5332
!	-10.5335
▁pacifique	-10.5335
▁régionale	-10.5338
▁pal	-10.534
▁séjour	-10.5342
▁avions	-10.5347
▁régulière	-10.5348
sson	-10.5348
thé	-10.5349
▁respect	-10.5356
▁dirigeants	-10.536
▁quasi	-10.5365
▁succède	-10.5367
▁acquis	-10.5367
▁90	-10.5369
▁bourse	-10.5372
▁apparition	-10.5376
▁prêt	-10.5377
av	-10.5379
▁scénario	-10.5385
▁fleurs	-10.539
atelier	-10.5392
ides	-10.5397
▁vide	-10.5398
appareil	-10.5402
▁ti	-10.5405
▁2007.	-10.541
▁décédé	-10.5412
▁fera	-10.5421
▁émissions	-10.5425
▁auraient	-10.5436
=	-10.5437
▁francisco	-10.5441
▁bur	-10.5442
▁accès	-10.5445
▁nomination	-10.5448
▁représentent	-10.5449
▁débat	-10.5449
ches	-10.5457
ben	-10.5458
▁original	-10.546
▁proposé	-10.5463
▁pense	-10.5464
▁puisse	-10.547
▁bill	-10.547
▁bateau	-10.5473
▁défi	-10.548
▁do	-10.5486
▁men	-10.5486
▁colonie	-10.55
alors	-10.5508
▁1997,	-10.5512
▁accueilli	-10.5518
▁sam	-10.5519
▁responsabilité	-10.5521
▁nationales	-10.5521
▁culturelle	-10.5522
▁maroc	-10.5524
▁actes	-10.5525
▁mairie	-10.5527
▁2016.	-10.5528
14	-10.5531
▁foi	-10.5532
▁davantage	-10.5536
▁conquête	-10.5538
star	-10.5539
▁découvrir	-10.5545
▁remplacement	-10.5546
extrême	-10.5546
▁maintenir	-10.5547
lie	-10.5547
eff	-10.5547
▁300	-10.5551
vent	-10.5555
▁2006.	-10.5557
forme	-10.5558
▁industrielle	-10.5559
▁provinces	-10.5561
tal	-10.5567
▁sal	-10.557
▁milliers	-10.5577
plan	-10.5577
▁signature	-10.5582
▁pla	-10.559
▁chercheurs	-10.5594
▁polonais	-10.5596
▁féminin	-10.5601
▁autrefois	-10.5607
ii	-10.5608
▁francis	-10.5608
▁cd	-10.5608
▁roche	-10.5612
▁affecté	-10.5612
▁thèmes	-10.5614
▁disponibles	-10.5615
▁réduire	-10.5617
▁désigner	-10.5617
cas	-10.5618
▁café	-10.5623
▁consacre	-10.5627
issant	-10.5627
▁park	-10.5628
▁âgé	-10.563
téri	-10.5645
▁»),	-10.5646
▁regroupe	-10.5646
▁mag	-10.565
▁journaux	-10.565
▁interdit	-10.5652
ö	-10.5655
▁pourquoi	-10.5657
▁concentration	-10.5657
uk	-10.5658
▁verre	-10.5659
▁dessins	-10.5666
ima	-10.5668
bois	-10.5669
18	-10.5669
▁revenu	-10.567
▁recevoir	-10.5671
acte	-10.5673
ric	-10.5677
▁pensée	-10.5679
▁tableaux	-10.5686
ku	-10.5688
▁finances	-10.5694
bour	-10.5695
▁seraient	-10.5695
▁guitare	-10.57
▁aérienne	-10.57
▁chiffre	-10.571
▁school	-10.5713
▁passion	-10.5715
▁relève	-10.5716
▁cousin	-10.5717
▁150	-10.5723
▁1995,	-10.5724
zy	-10.5725
▁conscience	-10.5731
▁classiques	-10.5731
assurer	-10.5739
▁particulière	-10.5743
▁donnent	-10.5743
intervention	-10.5744
▁renaissance	-10.5744
▁quartiers	-10.5744
▁conférences	-10.5746
▁milliards	-10.5748
bat	-10.5748
ā	-10.5748
▁moulin	-10.5749
▁max	-10.5749
élite	-10.5751
tr	-10.5752
▁wi	-10.5755
▁cré	-10.5756
▁1993	-10.5756
ants	-10.5757
▁ker	-10.5759
▁traces	-10.5761
▁pages	-10.5776
▁grèce	-10.5777
▁traversée	-10.5783
algérie	-10.5786
acide	-10.5787
australie	-10.5789
▁compétences	-10.5791
▁romains	-10.5791
▁gal	-10.5791
installation	-10.5794
▁disney	-10.5795
▁signal	-10.5797
▁nucléaire	-10.5797
▁donna	-10.5804
86	-10.5805
▁liens	-10.5807
rage	-10.5807
▁changements	-10.581
▁inférieur	-10.5815
▁destinée	-10.5819
▁+	-10.582
▁ad	-10.582
▁comprendre	-10.5821
▁im	-10.5821
▁recueil	-10.5822
aix	-10.5822
▁hauts	-10.5823
▁écrivain	-10.5825
henri	-10.5827
▁1996,	-10.5827
introduction	-10.5828
▁gérard	-10.5829
▁vend	-10.583
▁télévisée	-10.5831
yo	-10.5834
▁destination	-10.5839
vert	-10.5841
pt	-10.5846
accueil	-10.5847
fin	-10.585
▁transformation	-10.5856
▁juan	-10.5856
27	-10.5857
▁situés	-10.586
▁coalition	-10.586
▁successeur	-10.5862
avance	-10.5864
▁veille	-10.5866
▁ke	-10.5869
michel	-10.5869
▁défendre	-10.587
▁possession	-10.5872
▁diamètre	-10.5873
▁enregistre	-10.5879
▁marquis	-10.5883
▁ferroviaire	-10.5886
exemple	-10.5886
75	-10.5888
▁pur	-10.5894
▁peintures	-10.5895
▁choses	-10.5898
▁entraîneur	-10.5898
attention	-10.59
▁voyageurs	-10.5901
extrémité	-10.5903
▁quart	-10.5903
▁remplace	-10.5904
wi	-10.5911
▁gris	-10.5919
▁champs	-10.5922
aud	-10.5924
▁rapports	-10.5932
▁morte	-10.5934
▁fé	-10.5935
▁paysage	-10.5936
▁compter	-10.5937
▁terminé	-10.5943
▁exposition	-10.5947
ration	-10.5948
tive	-10.5948
jacques	-10.5949
▁clair	-10.595
▁bloc	-10.5954
ial	-10.5955
▁mas	-10.5955
▁pieds	-10.5957
▁noblesse	-10.5958
▁transmission	-10.5958
shi	-10.596
uc	-10.5961
▁changer	-10.5962
appellation	-10.5964
▁leader	-10.5965
▁suivent	-10.5966
▁papier	-10.5966
rich	-10.5972
’"	-10.5974
28	-10.5976
▁mauvais	-10.5979
aile	-10.598
▁support	-10.598
▁réputation	-10.5982
gie	-10.5984
▁syndicat	-10.5985
▁urbaine	-10.5988
▁devenant	-10.599
andré	-10.5991
▁lille	-10.5994
▁départemental	-10.5997
▁densité	-10.6001
▁(15	-10.6008
▁catherine	-10.601
qué	-10.6016
▁répond	-10.6019
▁rare	-10.6019
rs	-10.602
▁gla	-10.6023
impose	-10.6023
▁poursuivre	-10.6025
▁charbon	-10.6027
▁1989	-10.6027
▁agricoles	-10.6033
historien	-10.6041
▁ku	-10.6042
▁employé	-10.6043
sky	-10.6045
existe	-10.6051
islam	-10.6057
▁sœurs	-10.6057
▁rôles	-10.606
▁mexique	-10.6062
ado	-10.6065
▁renommée	-10.6066
▁nationaux	-10.6068
cc	-10.6072
étienne	-10.6074
well	-10.6074
bach	-10.6076
▁principes	-10.608
▁commencent	-10.6081
3,	-10.6082
tar	-10.6085
ef	-10.6094
ces	-10.6095
▁apparaissent	-10.6101
▁organisations	-10.6103
▁lit	-10.6104
▁tenue	-10.611
▁étoiles	-10.6111
▁chrétiens	-10.6114
▁bay	-10.6116
▁concurrence	-10.6119
▁provoque	-10.612
▁contraint	-10.612
▁populaires	-10.6123
▁stratégie	-10.6127
▁charte	-10.6128
ü	-10.6128
▁grave	-10.6132
gor	-10.6134
pan	-10.6135
▁remise	-10.6143
ik	-10.6143
23	-10.6144
inscrit	-10.6145
▁ventes	-10.6146
▁dramatique	-10.6149
▁moindre	-10.615
▁élève	-10.6151
▁pot	-10.6152
▁courses	-10.6153
▁pin	-10.6154
▁devrait	-10.6157
▁regard	-10.6159
▁college	-10.6161
dr	-10.6162
▁han	-10.6165
▁smith	-10.6166
▁cm	-10.6168
▁objectifs	-10.6172
▁vécu	-10.6173
▁santa	-10.6175
zer	-10.6185
ars	-10.6186
xi	-10.6186
▁révolutionnaire	-10.619
▁major	-10.6192
avenir	-10.6193
▁2017.	-10.6202
▁subi	-10.6203
▁lorraine	-10.6204
▁représenté	-10.6204
quet	-10.6206
▁carl	-10.6206
▁normale	-10.6208
▁quoi	-10.6208
▁déclaration	-10.6208
▁centaines	-10.6219
rey	-10.6224
▁administrative	-10.6224
▁paru	-10.6225
▁fan	-10.6228
▁gou	-10.6228
▁aîné	-10.6229
rée	-10.6229
▁paraît	-10.6229
▁documentaire	-10.623
▁fr	-10.623
identité	-10.6231
▁fixe	-10.6234
▁rues	-10.6237
ible	-10.6238
électricité	-10.6242
▁am	-10.6244
sous	-10.6247
▁maritime	-10.625
▁ciel	-10.625
isant	-10.6256
▁côtes	-10.6259
▁reçut	-10.6263
kh	-10.6264
▁32	-10.6271
▁précisément	-10.6271
01	-10.6274
ax	-10.6275
▁déterminer	-10.6276
▁financement	-10.6278
marin	-10.6278
▁décor	-10.6281
▁constitutionnel	-10.6289
ura	-10.6294
▁clé	-10.6295
▁citoyens	-10.6302
▁conséquent	-10.6305
▁repose	-10.6306
▁chargée	-10.6307
pol	-10.6308
lou	-10.6308
▁glace	-10.6313
tiques	-10.6314
▁péri	-10.6316
-20	-10.6317
observation	-10.6321
alpes	-10.6322
▁imp	-10.6324
hl	-10.633
aga	-10.6333
▁partisans	-10.6344
▁commença	-10.6344
tine	-10.6347
▁os	-10.6347
▁milieux	-10.6348
sel	-10.6362
équipement	-10.6363
&	-10.6365
▁pierres	-10.6365
▁morceaux	-10.6367
tage	-10.6372
▁tor	-10.6375
▁adopté	-10.6375
▁bri	-10.6378
olo	-10.6378
ose	-10.638
▁soutenu	-10.6381
▁effectué	-10.6382
▁individus	-10.6389
▁présentée	-10.639
...).	-10.639
▁1994,	-10.6391
nis	-10.6399
▁conserver	-10.6403
▁app	-10.6404
instruction	-10.6404
▁dédiée	-10.6405
▁saut	-10.6408
▁internationaux	-10.6411
▁juridique	-10.6414
aventure	-10.6417
▁centres	-10.6425
sud	-10.6429
pu	-10.6432
aï	-10.6434
▁automobile	-10.6436
▁féminine	-10.6437
▁canadien	-10.6438
tic	-10.6446
▁desservie	-10.6453
rer	-10.6453
▁terrains	-10.6457
▁seigneurs	-10.6458
ions	-10.646
▁bob	-10.6465
▁origines	-10.6469
▁1950,	-10.6475
▁chrétienne	-10.6476
▁guerres	-10.6477
▁sha	-10.6477
▁boulevard	-10.6477
▁utilisent	-10.6478
▁occasion	-10.6478
▁sportive	-10.6481
▁pr	-10.6489
frère	-10.6493
▁confiance	-10.6495
▁maîtrise	-10.65
▁néerlandais	-10.6505
▁gabriel	-10.6505
actrice	-10.6506
▁big	-10.6507
▁barcelone	-10.6509
▁risques	-10.6513
▁1991	-10.6513
▁sp	-10.6515
▁peau	-10.6516
wood	-10.6517
town	-10.6518
▁cinquante	-10.652
cr	-10.652
▁fournir	-10.6527
ingénieur	-10.6532
▁parlementaire	-10.6533
low	-10.6537
chant	-10.6538
▁entière	-10.6541
exercice	-10.6544
▁jérusalem	-10.6545
ting	-10.6548
▁propriétaires	-10.655
▁doctorat	-10.6556
▁tr	-10.6556
▁instruments	-10.6562
atlantique	-10.6562
plus	-10.6563
▁1988	-10.6564
ost	-10.6564
▁fo	-10.6564
▁froid	-10.6565
eu	-10.6568
chet	-10.6571
▁limites	-10.6573
▁dom	-10.6576
▁envoie	-10.6595
▁attaques	-10.6596
entraînement	-10.6598
▁invité	-10.6599
▁orientale	-10.6599
▁live	-10.6599
ati	-10.6602
burg	-10.6607
▁fréquemment	-10.6608
acquisition	-10.6612
mond	-10.6614
sie	-10.6614
▁difficulté	-10.6616
igne	-10.6619
nom	-10.6619
▁1940,	-10.6624
roy	-10.6627
▁duché	-10.6629
gr	-10.6631
▁installations	-10.6631
▁acte	-10.6634
▁abandonné	-10.6637
▁clip	-10.6646
▁départementale	-10.666
cent	-10.6665
▁construits	-10.6666
autoroute	-10.6667
▁ger	-10.667
erie	-10.6671
31	-10.6673
dra	-10.6677
▁conservatoire	-10.6679
▁électronique	-10.6681
▁tenir	-10.6681
▁fur	-10.6686
gui	-10.6688
▁métro	-10.6694
aviation	-10.6696
▁hockey	-10.6704
▁logiciel	-10.6708
▁photographie	-10.6713
ments	-10.6714
▁mans	-10.6726
▁assurer	-10.6729
▁noirs	-10.6731
▁1940	-10.6732
▁partenariat	-10.6732
▁olympique	-10.6735
▁prévoit	-10.6735
47	-10.6736
▁répondre	-10.6737
71	-10.6738
▁scolaire	-10.6738
85	-10.6738
▁marquée	-10.6741
garde	-10.6743
▁logements	-10.6743
ente	-10.6746
▁1944,	-10.6752
bb	-10.6757
▁mettent	-10.6762
▁participent	-10.6765
▁fréquence	-10.6769
▁1992,	-10.6771
▁faute	-10.6771
▁catholiques	-10.6772
45	-10.6773
vol	-10.6775
▁noël	-10.6782
26	-10.6784
▁décident	-10.6787
▁chaleur	-10.6788
▁usage	-10.679
▁industriel	-10.6791
vous	-10.6792
▁normandie	-10.6792
▁corse	-10.6802
▁show	-10.6802
ft	-10.6808
▁conservation	-10.6811
▁transition	-10.6815
▁ki	-10.6819
▁inférieure	-10.6823
▁enterré	-10.683
▁marié	-10.6831
▁portrait	-10.6833
cri	-10.6835
▁consacrée	-10.6837
nage	-10.684
▁scott	-10.684
▁mad	-10.6842
▁diplômé	-10.6842
87	-10.6844
▁cancer	-10.6844
▁quarante	-10.6845
▁travailleurs	-10.6849
▁définit	-10.6851
▁chance	-10.6855
▁1986	-10.6856
▁vestiges	-10.6858
▁danger	-10.6858
▁claire	-10.6859
hop	-10.6865
▁carré	-10.6866
▁poèmes	-10.6866
rique	-10.6882
pr	-10.6884
kel	-10.6886
▁vapeur	-10.6888
▁patron	-10.689
huit	-10.6893
▁accident	-10.6897
▁kar	-10.6899
antes	-10.6899
▁toit	-10.6905
▁séminaire	-10.6909
ations	-10.691
kan	-10.6913
▁volumes	-10.6919
iran	-10.692
▁transféré	-10.6921
▁pilotes	-10.6923
bal	-10.6923
▁paroles	-10.6928
paris	-10.6931
▁compagnies	-10.6932
▁successivement	-10.6934
▁catégories	-10.6937
kar	-10.6947
▁opération	-10.6952
▁studios	-10.6953
▁liées	-10.6954
▁postes	-10.6955
entraîneur	-10.6959
sta	-10.6964
ages	-10.6964
zan	-10.6966
▁nul	-10.697
▁rappelle	-10.6971
▁défend	-10.6975
▁ob	-10.698
nord	-10.6981
▁financière	-10.6981
▁supplémentaires	-10.6983
achat	-10.6985
alimentation	-10.6985
▁expositions	-10.6987
▁altitude	-10.6989
▁franchise	-10.6992
▁fleur	-10.6993
▁war	-10.7
▁personnalité	-10.7004
▁versant	-10.7009
▁indépendante	-10.7011
▁sir	-10.7021
ath	-10.7021
▁barrage	-10.7022
▁tracé	-10.7022
▁gardien	-10.7022
tch	-10.7025
2.	-10.7026
oï	-10.7028
▁variété	-10.7029
▁we	-10.703
oni	-10.7031
▁judiciaire	-10.7032
dar	-10.7032
▁collectif	-10.7032
▁drapeau	-10.7034
▁procédé	-10.7035
97	-10.7037
1.	-10.7038
▁séparation	-10.7042
▁luxembourg	-10.7046
▁pé	-10.7049
▁gor	-10.705
▁fédérale	-10.7053
▁cesse	-10.7053
feld	-10.7054
▁1991,	-10.7054
_1	-10.7056
ète	-10.7057
94	-10.7059
▁commerciale	-10.7062
▁company	-10.7064
antiquité	-10.7067
nov	-10.7068
octobre	-10.7069
vet	-10.707
▁ali	-10.7071
▁présentation	-10.7081
▁maximale	-10.7087
égypte	-10.7088
sept	-10.709
▁metal	-10.709
▁dizaine	-10.7093
▁mises	-10.7093
▁recensement	-10.7093
▁secours	-10.7094
▁mourut	-10.7095
▁remarquable	-10.7095
▁quel	-10.7098
fu	-10.7098
▁pouvaient	-10.7098
▁publiés	-10.7099
▁jury	-10.7102
évaluation	-10.7102
▁message	-10.7104
asse	-10.7106
▁you	-10.7107
▁"(	-10.7107
écosse	-10.7107
▁retard	-10.7111
heim	-10.7113
▁extrêmement	-10.7114
nas	-10.7117
sac	-10.7124
▁confirme	-10.7128
hel	-10.7129
▁préfet	-10.7131
▁fruits	-10.7132
▁trophée	-10.7133
▁duquel	-10.7133
▁représenter	-10.7134
expédition	-10.7136
assi	-10.7142
▁(20	-10.7144
alité	-10.7152
▁employés	-10.7152
▁nécessité	-10.7155
▁génie	-10.7156
▁brun	-10.7164
▁bla	-10.7167
▁réduite	-10.717
▁1993,	-10.717
▁reconstruction	-10.7175
nia	-10.7176
mie	-10.7176
▁touche	-10.7184
▁lanceur	-10.7188
col	-10.7195
▁minimum	-10.7202
▁universités	-10.7202
29	-10.7209
rd	-10.721
93	-10.7211
82	-10.7213
abandon	-10.7213
apprentissage	-10.7215
▁pertes	-10.7216
▁1.	-10.7217
▁gra	-10.7221
dal	-10.7221
▁dispositif	-10.7222
▁responsables	-10.723
▁septième	-10.7234
▁dessinée	-10.7236
89	-10.7237
humanité	-10.725
▁historiens	-10.725
▁vins	-10.7251
▁huitième	-10.7257
▁campagnes	-10.7258
orgue	-10.7259
▁1968	-10.7259
▁guitariste	-10.726
▁différent	-10.7265
▁libéral	-10.7266
ë	-10.7267
▁autonome	-10.7274
▁fréquente	-10.7274
mal	-10.7274
98	-10.7275
▁entraîne	-10.7275
▁filiale	-10.7278
▁bataillon	-10.728
âme	-10.728
▁vigueur	-10.7281
▁efficace	-10.7281
win	-10.7282
▁peuples	-10.7283
▁hameau	-10.7284
importe	-10.7286
▁longues	-10.7288
▁conseils	-10.7288
▁karl	-10.729
▁environs	-10.7291
▁plaque	-10.7293
ffe	-10.7293
rum	-10.7296
▁américaines	-10.7297
▁colline	-10.7297
allemand	-10.73
▁soutenir	-10.7301
▁spéciale	-10.7301
nelle	-10.7303
▁couche	-10.7303
égalité	-10.7303
▁bases	-10.7303
▁dure	-10.7304
▁distinction	-10.7305
▁nice	-10.731
of	-10.7311
▁hongrie	-10.7314
▁réélu	-10.7326
▁manifestations	-10.7327
▁inc	-10.7331
65	-10.7333
▁venant	-10.7333
▁logique	-10.7334
▁espaces	-10.7335
▁spécialiste	-10.7339
tie	-10.7341
▁arbres	-10.7342
▁tim	-10.7342
roi	-10.7343
orientation	-10.7344
accent	-10.7345
▁passagers	-10.7345
▁league	-10.7346
▁procédure	-10.7348
▁attendre	-10.7352
euro	-10.7353
mb	-10.7355
79	-10.7355
▁conseillers	-10.7358
lay	-10.736
essentiel	-10.736
▁lou	-10.736
étique	-10.7365
▁fortune	-10.7366
app	-10.7366
▁gagné	-10.7368
ō	-10.7368
▁métier	-10.7371
entretien	-10.7371
▁tire	-10.7374
sha	-10.7375
bin	-10.7375
▁pou	-10.7378
autant	-10.7379
▁latine	-10.7382
▁description	-10.7382
▁artiste	-10.7383
▁réduction	-10.7383
▁mary	-10.7384
▁sélectionné	-10.739
▁approche	-10.739
ero	-10.7391
are	-10.7393
▁vincent	-10.7393
arme	-10.7394
▁exclusivement	-10.7395
▁mené	-10.7397
▁1985	-10.7402
î	-10.7402
▁oncle	-10.7405
▁libéré	-10.7406
mor	-10.7406
▁établie	-10.7407
▁remarque	-10.7409
▁(1	-10.7412
▁chat	-10.7415
▁visiteurs	-10.7417
▁devaient	-10.7421
▁ennemis	-10.7424
zé	-10.7424
▁agents	-10.7425
▁bénéficie	-10.7426
▁brown	-10.7431
▁lancée	-10.7432
▁espagnols	-10.7434
▁constante	-10.7435
appelle	-10.7437
ye	-10.7438
▁remis	-10.7439
uri	-10.744
▁blessés	-10.7442
▁vise	-10.7443
▁400	-10.7445
▁2019	-10.7447
ct	-10.7448
▁plat	-10.7448
ures	-10.7448
▁tv	-10.7449
▁favorable	-10.7452
▁géographique	-10.7453
aller	-10.7453
▁venise	-10.7454
oud	-10.7454
cou	-10.7456
▁faux	-10.7457
▁décida	-10.7459
▁hans	-10.7463
for	-10.7469
▁positions	-10.7469
▁profession	-10.7471
▁vieille	-10.7476
▁za	-10.7476
▁montrer	-10.7479
▁colonnes	-10.7479
▁trace	-10.7481
rand	-10.7483
07	-10.7483
ú	-10.7483
éra	-10.7485
rus	-10.7488
▁épreuves	-10.7488
▁suprême	-10.7489
▁remporter	-10.749
nés	-10.749
▁neige	-10.7491
▁"«	-10.7496
▁bac	-10.7497
69	-10.7497
▁produite	-10.75
▁revenus	-10.7503
▁productions	-10.7503
assurance	-10.7506
▁césar	-10.7507
▁liège	-10.7512
▁mener	-10.7513
▁sta	-10.7513
appui	-10.7518
▁continuer	-10.7519
nais	-10.7526
▁annuelle	-10.7528
ich	-10.7529
▁batterie	-10.7529
▁baseball	-10.7532
▁dynamique	-10.7532
▁contemporain	-10.7533
▁ski	-10.7533
▁veuve	-10.7535
▁cultures	-10.7536
▁jouent	-10.7539
▁arrivé	-10.7544
▁gui	-10.7557
ales	-10.7558
▁ateliers	-10.756
▁faits	-10.756
▁troupe	-10.7561
▁fu	-10.7563
wan	-10.7563
▁demander	-10.7567
more	-10.757
nos	-10.7571
▁cuisine	-10.7575
▁varie	-10.7578
▁morceau	-10.7578
hal	-10.7579
▁jacob	-10.7582
ras	-10.7583
▁départements	-10.7584
dd	-10.7585
▁montrent	-10.7586
cf	-10.7588
▁%).	-10.7589
99	-10.7589
▁maladies	-10.7594
▁suffrages	-10.7595
▁rouges	-10.7597
zu	-10.7598
33	-10.7599
▁réalisés	-10.7599
▁interview	-10.76
▁tourné	-10.76
22	-10.76
▁étage	-10.7605
▁image	-10.7606
▁soirée	-10.7608
atif	-10.761
▁efforts	-10.7612
mel	-10.7613
▁bru	-10.7618
▁publications	-10.7621
ska	-10.7621
▁puissant	-10.7629
hn	-10.7637
▁technologies	-10.7637
39	-10.7641
▁violence	-10.7642
▁wei	-10.7642
▁continent	-10.7643
▁nécessite	-10.7646
▁lord	-10.765
adi	-10.7653
▁%.	-10.7658
ern	-10.7662
cor	-10.7663
▁clients	-10.7663
▁étapes	-10.7664
tus	-10.7665
81	-10.7666
▁soumis	-10.7667
▁chien	-10.7669
▁urbain	-10.7672
▁turquie	-10.7672
▁1987	-10.7676
▁métropole	-10.7678
▁surnom	-10.7678
▁cam	-10.7679
pho	-10.7683
▁var	-10.7685
▁inauguré	-10.7686
▁olivier	-10.7688
assa	-10.7688
rt	-10.7691
▁édité	-10.7694
▁étudier	-10.7694
▁suivie	-10.7695
▁totalité	-10.7696
▁arabes	-10.7698
▁group	-10.77
rel	-10.7701
▁visage	-10.7701
form	-10.7702
▁demandé	-10.7702
▁pra	-10.7706
▁chantier	-10.7706
▁célèbres	-10.7707
▁ouvriers	-10.7707
ast	-10.7708
ky	-10.7709
▁hal	-10.771
▁troubles	-10.7712
▁alliance	-10.772
▁couvre	-10.7726
▁fiat	-10.7728
esse	-10.7729
▁facile	-10.773
▁possèdent	-10.7736
▁resté	-10.7736
▁sauver	-10.7739
euses	-10.774
▁spécifiques	-10.774
▁bol	-10.7743
approche	-10.7744
▁ajoute	-10.7745
▁surveillance	-10.7746
urgence	-10.7746
imp	-10.7747
▁dimensions	-10.7748
▁représentations	-10.7748
▁vii	-10.7749
▁tenant	-10.7749
marc	-10.7749
▁colonne	-10.7751
▁souverain	-10.7752
38	-10.7753
32	-10.7753
▁sportif	-10.7754
▁spécialisée	-10.7755
sion	-10.7759
▁poème	-10.7759
▁monter	-10.776
stein	-10.7765
intégration	-10.7769
▁accessible	-10.777
▁collabore	-10.7771
bes	-10.7774
▁écrire	-10.7779
▁relative	-10.778
▁1989,	-10.7781
▁clocher	-10.7782
▁sortant	-10.7785
▁communal	-10.7785
▁riches	-10.7786
▁avion	-10.7789
▁frontières	-10.78
pre	-10.7808
▁établit	-10.7811
▁barre	-10.7812
▁localité	-10.7818
▁ruisseau	-10.7823
▁potentiel	-10.7826
gou	-10.7832
%	-10.7832
▁défini	-10.7835
▁adapté	-10.7835
vier	-10.7835
▁impossible	-10.7837
▁rêve	-10.7842
▁1984	-10.7843
▁bell	-10.7847
▁bandes	-10.785
▁notes	-10.7851
joseph	-10.7852
▁mol	-10.7852
▁fini	-10.7853
▁sculpteur	-10.7853
bra	-10.7857
mat	-10.7859
▁sel	-10.7859
▁fondateurs	-10.7861
▁quitté	-10.7863
▁connues	-10.7864
95	-10.7866
▁spécial	-10.7868
ture	-10.7869
alcool	-10.7876
▁disques	-10.7877
▁rythme	-10.7878
▁développée	-10.788
”	-10.7883
qua	-10.7886
ennemi	-10.7886
én	-10.7889
intéresse	-10.7891
éli	-10.7896
▁treize	-10.7898
▁versailles	-10.7899
▁clan	-10.7899
▁tués	-10.7902
▁semblent	-10.7908
▁discipline	-10.7908
iennes	-10.7909
▁endroit	-10.791
▁q	-10.791
91	-10.7912
34	-10.7914
▁appareils	-10.7927
▁intervient	-10.7931
▁citer	-10.7932
▁jardins	-10.7933
▁événement	-10.7933
cour	-10.7934
▁passa	-10.7936
▁grecque	-10.7942
▁metz	-10.7943
▁attribué	-10.7945
▁mm	-10.7948
var	-10.7949
assassinat	-10.795
▁fournit	-10.7952
▁sanctuaire	-10.7959
▁fermeture	-10.7963
▁réunit	-10.7964
▁reliant	-10.7966
cul	-10.7967
▁seules	-10.7967
rier	-10.7967
▁simples	-10.7969
▁contribue	-10.7971
▁partiellement	-10.7972
▁avocat	-10.7972
▁allemandes	-10.7974
▁situées	-10.7978
▁peint	-10.7978
▁white	-10.798
▁hill	-10.7981
▁1945	-10.7985
▁hi	-10.7991
▁1982	-10.7992
naire	-10.7992
éditeur	-10.7993
▁fuite	-10.7993
▁33	-10.7994
▁fouilles	-10.7995
▁nation	-10.7999
oz	-10.8001
▁rédacteur	-10.8002
▁administratif	-10.8004
▁régionales	-10.8005
▁hectares	-10.8007
seine	-10.8008
nat	-10.8014
▁oiseaux	-10.8014
_	-10.8016
▁vocation	-10.8018
▁fosse	-10.8018
▁biais	-10.802
cot	-10.802
▁nourriture	-10.8023
ming	-10.8024
▁satellite	-10.8025
▁marguerite	-10.8028
▁méditerranée	-10.8032
▁dépôt	-10.8032
▁xv	-10.8034
▁trésor	-10.8035
uss	-10.804
▁ac	-10.8043
▁limitée	-10.8046
▁king	-10.8046
oux	-10.8046
▁mau	-10.8049
▁transformé	-10.8049
mit	-10.8053
ill	-10.8054
▁italiens	-10.8056
▁frappe	-10.8057
▁rapporte	-10.8059
▁provence	-10.8062
37	-10.8065
▁retrouvé	-10.8069
▁vérité	-10.8072
▁issue	-10.808
▁1930,	-10.8083
-4	-10.8084
indi	-10.8085
ieux	-10.8086
83	-10.8088
œil	-10.8089
ther	-10.8089
efficacité	-10.8092
46	-10.8095
tent	-10.8098
▁édouard	-10.8098
▁obligatoire	-10.8099
ave	-10.8103
▁précision	-10.8104
ères	-10.8105
uv	-10.8108
▁intérêts	-10.8114
▁caractères	-10.8114
arn	-10.8114
▁fidèle	-10.8116
▁fontaine	-10.8116
antoine	-10.8118
▁1945,	-10.812
▁2000.	-10.812
▁1930	-10.8122
▁2005.	-10.8123
▁sable	-10.8127
▁chinoise	-10.8131
ace	-10.8134
ning	-10.8135
▁applications	-10.8136
char	-10.814
▁ps	-10.814
ala	-10.8143
48	-10.8144
▁duo	-10.8144
▁1983	-10.8147
▁rupture	-10.8148
gel	-10.8152
▁fri	-10.8152
▁solide	-10.8153
▁cher	-10.8155
▁universelle	-10.8156
▁provient	-10.8159
▁catalogue	-10.816
▁rarement	-10.8161
▁may	-10.8166
denis	-10.8166
▁qualifie	-10.8169
▁facteurs	-10.8169
▁monnaie	-10.817
▁parisienne	-10.8174
▁vivent	-10.8175
▁prévue	-10.8176
▁bis	-10.8177
▁humaines	-10.8177
tron	-10.8177
▁partout	-10.8177
▁ham	-10.8179
▁choisir	-10.818
▁voulait	-10.8181
▁kh	-10.8184
05	-10.8186
▁connaissances	-10.8188
▁agent	-10.8188
▁assistant	-10.8191
▁résolution	-10.8191
06	-10.8194
▁degré	-10.8195
▁sculpture	-10.8198
▁surnommé	-10.8201
hen	-10.8203
6,	-10.8203
▁traditionnel	-10.8203
▁manuscrit	-10.8205
▁maintien	-10.8205
▁thi	-10.8207
affiche	-10.8207
▁formant	-10.8208
ub	-10.8212
û	-10.8217
▁marais	-10.8217
atrice	-10.8218
▁payer	-10.8218
américain	-10.822
▁augmente	-10.822
▁intérêt	-10.822
▁boston	-10.8227
hy	-10.8227
▁étudié	-10.8227
▁naturelles	-10.8229
▁musulmans	-10.8229
ip	-10.8232
nette	-10.8234
atmosphère	-10.8234
▁classée	-10.8235
▁pre	-10.8237
▁figures	-10.8237
ét	-10.8238
▁recours	-10.824
▁dénomination	-10.8241
▁négociations	-10.8243
get	-10.8244
▁chante	-10.8249
américaine	-10.825
chen	-10.825
▁relie	-10.825
▁acteur	-10.8253
finale	-10.8261
fre	-10.8265
lès	-10.8268
4,	-10.8269
▁(3	-10.827
▁soins	-10.827
cker	-10.827
élé	-10.8282
▁rio	-10.8282
▁chercher	-10.8283
▁street	-10.8283
▁voient	-10.8285
étoile	-10.8287
▁bad	-10.8291
▁placée	-10.8292
agissait	-10.8294
alsace	-10.8296
▁arc	-10.8296
▁installée	-10.8298
▁différente	-10.8299
▁intégré	-10.8302
▁annuel	-10.8304
▁sor	-10.8307
bit	-10.831
vit	-10.8311
▁pourraient	-10.8315
août	-10.8316
▁montpellier	-10.832
key	-10.8321
▁2018.	-10.8322
▁arthur	-10.8323
annonce	-10.833
▁vo	-10.8331
▁1920	-10.834
▁1944	-10.8346
▁dominique	-10.8346
▁durable	-10.8352
log	-10.8353
tro	-10.8356
fo	-10.8356
▁extension	-10.8358
mus	-10.8358
▁retrouvent	-10.8359
aria	-10.8359
▁retourner	-10.8364
gal	-10.8368
▁jouant	-10.837
avaient	-10.837
raient	-10.8381
▁poissons	-10.8381
▁confie	-10.8383
▁soixante	-10.8384
▁tournant	-10.8386
▁schéma	-10.8391
▁existent	-10.8393
nc	-10.8394
56	-10.8395
▁réception	-10.8401
aspect	-10.8405
▁équipé	-10.8406
▁centaine	-10.8407
▁mobile	-10.8408
▁blessure	-10.8409
nik	-10.841
établir	-10.8412
▁flux	-10.8413
▁personnelle	-10.8416
▁anglo	-10.8418
▁vigne	-10.842
▁viol	-10.8423
eg	-10.8426
▁modifications	-10.8426
inspiration	-10.8427
▁changé	-10.8437
▁occupée	-10.8439
urss	-10.8441
▁entrer	-10.8442
▁capacités	-10.8443
▁put	-10.8446
not	-10.8446
ula	-10.845
cro	-10.8451
illes	-10.8451
▁prieuré	-10.8453
▁inhumé	-10.8454
▁garder	-10.8454
got	-10.8457
▁auguste	-10.8457
aise	-10.8458
▁1975	-10.8463
▁apporte	-10.8463
ets	-10.8471
▁nancy	-10.8471
08	-10.8473
▁suffisamment	-10.8473
▁bilan	-10.8475
▁enquête	-10.8475
sti	-10.8475
▁permanente	-10.8476
▁allait	-10.8479
▁banlieue	-10.8479
▁1990.	-10.848
dom	-10.848
64	-10.8482
vienne	-10.8482
germain	-10.8486
▁composés	-10.8486
_4	-10.8487
▁démission	-10.8487
laurent	-10.849
▁rencontré	-10.849
▁inscrits	-10.849
▁assassiné	-10.8491
arbre	-10.8495
amitié	-10.8496
▁cantons	-10.8497
▁doté	-10.8502
▁alfred	-10.8505
▁associés	-10.8506
▁compétitions	-10.8507
▁canadienne	-10.8511
▁penser	-10.8512
équation	-10.8514
▁rattachée	-10.8515
▁1972	-10.8515
yl	-10.8517
▁36	-10.8521
▁variable	-10.8523
▁financier	-10.8525
▁conséquences	-10.8525
uz	-10.8527
▁meurtre	-10.8528
▁1981	-10.853
bles	-10.8531
▁rennes	-10.8532
-16	-10.8532
▁maîtres	-10.8533
intermédiaire	-10.8534
▁présentant	-10.8536
▁réflexion	-10.8537
▁portugais	-10.8537
illard	-10.8542
▁jugement	-10.8542
▁gallo	-10.8544
▁contribué	-10.8545
ule	-10.8545
▁admis	-10.8549
▁sacré	-10.855
▁candidature	-10.8551
▁domination	-10.8551
▁entouré	-10.8551
▁talent	-10.856
illé	-10.856
▁rentre	-10.8565
▁jones	-10.8566
▁bureaux	-10.8567
ombre	-10.8569
▁cible	-10.8573
▁commissaire	-10.8576
▁pavillon	-10.8576
▁grève	-10.858
ssent	-10.8581
▁tenter	-10.8582
▁heure	-10.8583
▁retire	-10.859
ï	-10.8591
▁arrivée	-10.8593
▁enfance	-10.8594
▁entrée	-10.8605
55	-10.8605
▁florence	-10.8605
▁stratégique	-10.8607
ell	-10.8608
nard	-10.8608
▁passent	-10.8609
▁participa	-10.8611
▁marins	-10.8611
▁danemark	-10.8613
▁théologie	-10.8615
▁influencé	-10.8616
▁soi	-10.8623
▁pasteur	-10.8624
opinion	-10.8624
▁caroline	-10.8632
▁vingtaine	-10.8642
▁calendrier	-10.8648
▁préfecture	-10.8649
▁mus	-10.8649
▁provisoire	-10.8653
▁1977	-10.8654
▁aider	-10.8655
cin	-10.8657
▁délégation	-10.8661
claude	-10.8665
ouvre	-10.8665
▁outils	-10.8669
▁dvd	-10.867
▁application	-10.8671
▁1973	-10.8671
▁ailes	-10.8672
44	-10.8674
éviter	-10.8674
mand	-10.8677
▁restant	-10.868
▁inclus	-10.8682
avril	-10.87
rés	-10.8701
quin	-10.8701
red	-10.8701
▁acquiert	-10.8706
▁bra	-10.8708
ello	-10.8708
▁arrivent	-10.8709
général	-10.871
▁décède	-10.8711
lam	-10.8712
02	-10.8712
▁jackson	-10.8715
ites	-10.8717
▁bonnes	-10.8717
isés	-10.8723
nait	-10.8724
▁rois	-10.8724
66	-10.8726
los	-10.8728
▁tokyo	-10.8729
hér	-10.873
▁règlement	-10.873
▁correspondance	-10.8731
▁carbone	-10.8734
▁love	-10.8736
investissement	-10.8738
▁relief	-10.874
▁1988,	-10.8743
▁garnison	-10.8743
▁décennies	-10.8747
ata	-10.8748
▁kra	-10.8749
vy	-10.8749
▁reconnue	-10.8751
68	-10.8751
hr	-10.8755
▁possédait	-10.8756
vor	-10.8758
▁confirmé	-10.876
▁fra	-10.876
rot	-10.8763
▁2004.	-10.8764
▁contemporaine	-10.8765
gra	-10.8767
▁déchets	-10.8767
▁grenoble	-10.8772
▁tend	-10.8779
▁traite	-10.8783
▁surprise	-10.8787
▁expériences	-10.8789
▁péninsule	-10.8791
▁assuré	-10.8792
▁opposition	-10.8796
▁possibles	-10.8797
tout	-10.8797
▁gre	-10.8802
▁lire	-10.8803
▁liquide	-10.8806
▁déplacement	-10.8809
▁formations	-10.8813
▁ruines	-10.8814
▁familiale	-10.8817
ash	-10.8818
▁rendent	-10.8819
▁congrégation	-10.8825
bro	-10.8826
▁moi	-10.8827
▁garçon	-10.883
▁neveu	-10.883
▁voisins	-10.8834
▁bateaux	-10.8834
▁chris	-10.8836
▁augmentation	-10.8836
▁cri	-10.8842
mos	-10.8845
▁1974	-10.8847
▁libres	-10.8853
▁tre	-10.8856
interprétation	-10.886
▁breton	-10.8861
nal	-10.8862
avis	-10.8862
▁destinés	-10.8863
▁triple	-10.8865
▁venus	-10.8866
▁resta	-10.8866
▁établissement	-10.8876
▁retirer	-10.888
36	-10.888
table	-10.8885
▁future	-10.889
mir	-10.8892
▁shi	-10.8894
67	-10.8895
▁inde	-10.8907
hou	-10.8909
guerre	-10.8909
▁expose	-10.8913
ua	-10.8914
▁détruite	-10.8914
▁fêtes	-10.8918
▁seize	-10.8918
▁promouvoir	-10.8927
▁fenêtres	-10.8928
▁wil	-10.893
oh	-10.8931
groupe	-10.8939
▁1978	-10.8947
▁fermé	-10.8949
adresse	-10.8949
▁progrès	-10.8949
assaut	-10.895
▁critères	-10.8951
▁journalistes	-10.8954
▁edward	-10.8956
▁1976	-10.8959
▁essai	-10.8959
zar	-10.8961
▁rhône	-10.8961
▁colonies	-10.8963
▁rouen	-10.8968
▁voyages	-10.8968
autel	-10.8969
▁pascal	-10.897
▁dan	-10.8971
éd	-10.8971
▁associée	-10.8972
adaptation	-10.8977
▁spectateurs	-10.8977
▁maillot	-10.8979
écran	-10.8983
▁perdre	-10.8984
-6	-10.8984
row	-10.8986
▁cra	-10.8988
▁noble	-10.8989
▁publicité	-10.899
▁"",	-10.8995
explosion	-10.8999
▁alpes	-10.9
mis	-10.9004
▁portail	-10.9008
mba	-10.9009
▁exerce	-10.901
▁pie	-10.9012
▁“	-10.9012
dre	-10.9015
▁mike	-10.9016
▁basque	-10.9017
▁rayon	-10.9018
▁panneaux	-10.902
49	-10.9021
▁unies	-10.9021
▁aspects	-10.9025
▁tonnes	-10.9025
inventaire	-10.9027
04	-10.9027
▁mauvaise	-10.9029
▁ponts	-10.903
▁dia	-10.903
▁actrice	-10.9031
rice	-10.9033
▁junior	-10.9034
nisme	-10.9034
▁dar	-10.9037
échange	-10.9039
cap	-10.9039
marne	-10.9041
▁texas	-10.9041
far	-10.9044
▁chaînes	-10.9045
▁spatiale	-10.9047
▁importance	-10.9049
▁dédié	-10.9053
▁sûr	-10.9054
▁meilleures	-10.9055
▁kim	-10.9055
▁entame	-10.9057
impulsion	-10.906
pie	-10.9061
▁antique	-10.9061
abilité	-10.9066
ato	-10.9072
▁remarquer	-10.9077
pit	-10.9079
▁acheté	-10.9081
▁design	-10.9082
▁amie	-10.9083
▁julien	-10.9083
▁fl	-10.9084
▁largeur	-10.9086
▁antonio	-10.9088
▁sun	-10.9089
▁sucre	-10.9091
▁facteur	-10.9092
ève	-10.9092
▁républicain	-10.9092
▁soviétiques	-10.9092
▁ferdinand	-10.9093
96	-10.9093
▁avance	-10.9097
▁boy	-10.9103
international	-10.9103
endroit	-10.9104
▁confédération	-10.9106
▁curé	-10.9107
▁soul	-10.9108
▁constructeur	-10.9109
▁analyse	-10.9111
ity	-10.9112
▁marquant	-10.9113
▁voile	-10.9113
▁ray	-10.9114
fl	-10.9115
▁spectacles	-10.9116
hé	-10.9117
▁pousse	-10.9118
▁déclin	-10.9119
▁queue	-10.9121
lle	-10.9123
▁extra	-10.9125
▁fabrique	-10.9126
▁scénariste	-10.9129
isa	-10.9131
5,	-10.9135
▁juif	-10.9137
▁douce	-10.914
▁australie	-10.9144
▁souvenir	-10.9144
▁rotation	-10.9147
▁exceptionnelle	-10.9147
▁objet	-10.915
æ	-10.9154
▁toile	-10.9154
teurs	-10.9157
▁charges	-10.9158
▁publier	-10.9159
▁ve	-10.9167
unique	-10.9169
▁musicien	-10.9169
▁north	-10.9169
▁abandonne	-10.9171
▁dj	-10.9172
rio	-10.9172
gro	-10.9173
▁fortes	-10.9174
▁xiii	-10.9179
▁ph	-10.9183
dale	-10.9184
amélioration	-10.9184
α	-10.9186
▁peintres	-10.9188
▁vêtements	-10.9189
▁supplémentaire	-10.9191
▁normes	-10.9191
▁bâton	-10.9192
▁green	-10.9201
▁1986,	-10.9204
▁conflits	-10.9205
sp	-10.9207
▁voisine	-10.9208
▁tension	-10.9208
▁tempête	-10.921
side	-10.9211
▁clairement	-10.9215
000	-10.9218
▁résulte	-10.9218
▁1979	-10.9218
▁boîte	-10.9219
▁vendus	-10.9223
▁ingénieur	-10.9224
▁relais	-10.9228
▁conservateur	-10.9228
▁voisin	-10.9232
gg	-10.9234
▁lignée	-10.9238
▁médecins	-10.9238
zon	-10.9239
eck	-10.9241
▁balle	-10.9241
▁dérive	-10.9242
▁chasseurs	-10.9243
zel	-10.9247
▁marbre	-10.9249
cité	-10.9249
▁complexes	-10.925
43	-10.9252
▁accueillir	-10.9252
serv	-10.9254
zélande	-10.926
▁incluant	-10.926
cast	-10.9261
76	-10.9263
bor	-10.9266
notamment	-10.9269
▁danse	-10.927
▁nationalité	-10.9275
▁norvège	-10.9276
▁cuivre	-10.9276
▁reproduction	-10.9276
▁roumanie	-10.928
▁appareil	-10.9284
▁mixte	-10.9284
ajout	-10.9288
▁union	-10.9289
▁pôle	-10.929
▁munich	-10.9292
▁ministres	-10.9294
▁testament	-10.9296
oppose	-10.9298
▁secteurs	-10.9302
▁égale	-10.9302
agent	-10.9303
▁vraiment	-10.9304
▁concile	-10.9307
▁habituellement	-10.9309
graphie	-10.931
▁fruit	-10.931
▁manifeste	-10.9311
utilisateur	-10.9318
▁fidèles	-10.932
▁restera	-10.9322
▁émission	-10.9323
▁répartis	-10.9326
apport	-10.9327
▁échec	-10.9327
▁prisonnier	-10.9332
▁gen	-10.9336
▁noyau	-10.9339
▁intérieure	-10.9339
tas	-10.934
▁environnement	-10.9346
▁solaire	-10.935
▁révélé	-10.9351
▁formée	-10.9356
archevêque	-10.9356
cie	-10.9357
▁proposer	-10.9357
▁organismes	-10.9359
hypothèse	-10.936
▁préparer	-10.9363
▁démocratie	-10.9363
▁léger	-10.9366
▁commencer	-10.9367
▁étages	-10.9373
▁réalisées	-10.9375
▁2.	-10.9376
-3	-10.9376
▁volant	-10.9376
▁xiv	-10.9379
neuf	-10.9383
blo	-10.9389
▁120	-10.9389
chin	-10.9392
lim	-10.9392
▁participants	-10.9394
▁golfe	-10.9395
déc	-10.9397
▁tirer	-10.9399
▁étudiant	-10.9403
▁automatique	-10.9404
aider	-10.9406
▁quai	-10.9408
▁cellule	-10.941
09	-10.9411
▁marchandises	-10.9415
tha	-10.9416
▁band	-10.9418
42	-10.9419
▁mil	-10.942
▁syn	-10.9424
▁cy	-10.9424
▁servant	-10.9425
▁dame	-10.9426
▁1967	-10.9427
▁spa	-10.9428
▁chiffres	-10.9429
▁motifs	-10.9429
ase	-10.943
▁remplaçant	-10.9431
hommes	-10.9434
▁tourner	-10.9434
▁crédit	-10.9435
lac	-10.9435
▁divisé	-10.9438
trois	-10.9439
cinq	-10.944
▁matt	-10.9443
enne	-10.9447
▁vendre	-10.9461
enfants	-10.9462
ump	-10.9465
▁faites	-10.9467
▁pauvres	-10.9471
▁1980.	-10.9472
ateurs	-10.9473
▁bour	-10.9474
▁considérés	-10.9477
▁joe	-10.9478
▁répertoire	-10.9478
▁photos	-10.9482
▁samuel	-10.9485
▁bab	-10.9491
▁1920,	-10.9496
▁profil	-10.9497
aki	-10.9499
▁bruno	-10.95
▁programmation	-10.9503
lus	-10.9504
▁déménage	-10.9505
avocat	-10.9508
▁interprété	-10.9508
▁williams	-10.9509
▁rencontrer	-10.9509
▁qualification	-10.9509
▁béton	-10.9509
sc	-10.9511
▁norme	-10.9512
▁dirigeant	-10.9514
▁périodes	-10.9515
aine	-10.9515
niste	-10.9515
▁1969	-10.9519
▁fief	-10.9521
▁awards	-10.9527
tol	-10.9528
▁naturels	-10.9529
▁défaites	-10.953
▁municipales	-10.9532
terre	-10.9534
échec	-10.9535
▁tunnel	-10.9536
▁tony	-10.9537
▁reconnaît	-10.9539
78	-10.9539
▁voulu	-10.954
▁partenaire	-10.9541
▁estimé	-10.9541
▁pseudonyme	-10.9543
▁définir	-10.9547
▁natale	-10.9547
attraction	-10.9548
▁limité	-10.9551
nan	-10.9552
▁rhin	-10.9554
beau	-10.9557
cré	-10.956
▁probable	-10.9564
▁peur	-10.9564
ifier	-10.9564
albert	-10.9565
cio	-10.9565
▁équipements	-10.9569
aéro	-10.9575
▁reich	-10.9577
von	-10.9578
▁mentionné	-10.958
augmentation	-10.9584
▁1985,	-10.9587
▁branches	-10.959
▁serge	-10.959
▁difficiles	-10.9592
avantage	-10.9595
▁civils	-10.9597
▁prêtres	-10.9598
gli	-10.9602
▁venu	-10.9605
point	-10.9609
imposer	-10.961
▁trou	-10.9611
▁cur	-10.9615
▁1987,	-10.9619
▁époux	-10.9621
▁ronde	-10.9623
▁prête	-10.9626
▁suédois	-10.9626
▁2,	-10.9632
*	-10.9633
ologique	-10.9633
▁walter	-10.9637
▁décoration	-10.964
▁réside	-10.9641
pont	-10.9642
▁hôtel	-10.9643
ug	-10.9643
▁clermont	-10.9644
▁téléphone	-10.9644
nois	-10.9645
avi	-10.9649
▁brest	-10.9649
étape	-10.9651
day	-10.9655
▁diversité	-10.9657
▁touristique	-10.9659
▁adultes	-10.966
▁modeste	-10.9661
cle	-10.9662
armement	-10.9662
▁présentes	-10.967
▁dépression	-10.9675
▁épi	-10.9679
essai	-10.9683
venant	-10.9686
lic	-10.9686
▁électriques	-10.9688
▁eugène	-10.9692
▁malade	-10.9694
▁doctrine	-10.9695
▁grecs	-10.9698
instar	-10.9699
tit	-10.9703
▁dépit	-10.9704
▁décoré	-10.9705
cht	-10.9708
▁(4	-10.9709
écu	-10.971
▁vague	-10.9712
▁quatorze	-10.9715
▁théorème	-10.9715
▁fiction	-10.9718
lement	-10.9719
▁connait	-10.9722
▁maternelle	-10.9724
▁réelle	-10.9729
▁évêques	-10.9733
63	-10.9734
▁marchand	-10.9734
53	-10.974
avignon	-10.9742
év	-10.9744
▁sombre	-10.9746
▁combattre	-10.9748
tré	-10.9749
▁amateur	-10.975
▁1971	-10.9752
▁manuscrits	-10.9752
card	-10.9756
▁foule	-10.9756
aka	-10.9757
▁majeures	-10.9757
occident	-10.9758
int	-10.9758
mul	-10.9762
▁benjamin	-10.9762
▁cr	-10.9763
écrit	-10.9763
ish	-10.9764
▁sauvage	-10.9764
▁modifié	-10.9767
hem	-10.977
▁classification	-10.9771
▁cités	-10.9773
enceinte	-10.9781
▁privés	-10.9785
▁emmanuel	-10.9785
▁informatique	-10.9793
41	-10.9795
▁kan	-10.9796
▁territoriale	-10.9799
▁seuil	-10.9804
▁divisée	-10.9806
▁définie	-10.9809
▁remplacée	-10.9809
▁2003.	-10.9812
▁1984,	-10.9817
▁roy	-10.9818
ég	-10.982
éré	-10.982
▁magasin	-10.9821
lar	-10.9821
▁ordonne	-10.9824
▁xvi	-10.9824
▁1970.	-10.9825
▁profondément	-10.9826
▁naples	-10.9832
▁réfugiés	-10.9832
ow	-10.9837
▁christophe	-10.984
extension	-10.9842
▁compilation	-10.9844
▁diriger	-10.9845
main	-10.9848
▁rénovation	-10.985
74	-10.985
▁basilique	-10.9851
ea	-10.9851
▁solutions	-10.9852
▁poursuite	-10.9854
▁anna	-10.9855
▁1943,	-10.9859
jan	-10.9865
tée	-10.9867
▁endroits	-10.9867
▁philosophe	-10.9869
▁islamique	-10.9871
▁plate	-10.9871
▁continu	-10.9873
iller	-10.9877
▁producteurs	-10.9878
▁descendants	-10.988
▁terrestre	-10.9882
▁soldat	-10.9888
▁cat	-10.9892
▁paysans	-10.9893
▁vertu	-10.9893
▁voici	-10.9896
neuve	-10.9897
▁ressort	-10.9897
dieu	-10.9899
▁considérable	-10.99
▁battre	-10.99
édit	-10.9904
aurait	-10.9905
oiseau	-10.9906
achève	-10.9907
▁1962	-10.9908
▁constantinople	-10.9908
interdiction	-10.9909
▁bâti	-10.991
▁conclut	-10.991
▁rec	-10.9912
▁amené	-10.9916
▁robe	-10.9917
▁gilles	-10.9918
▁renforcer	-10.9919
▁pain	-10.9922
▁bourbon	-10.9922
▁angel	-10.9925
bl	-10.9925
▁récupérer	-10.9926
▁cru	-10.9928
chon	-10.9932
vil	-10.9933
▁initial	-10.9934
▁précis	-10.9937
part	-10.9942
iné	-10.9944
▁gothique	-10.9945
▁young	-10.9946
▁chrétien	-10.995
▁parisien	-10.9957
▁participant	-10.9957
▁choc	-10.9958
▁volontaires	-10.996
▁quelle	-10.9965
▁partenaires	-10.9966
▁sénateur	-10.9966
▁qualifié	-10.997
▁détruire	-10.9973
▁utile	-10.9974
inspire	-10.9977
▁trio	-10.9978
▁sprint	-10.9981
▁stable	-10.9984
▁[...]	-10.9991
▁morale	-10.9992
hard	-10.9994
▁accusé	-10.9994
vre	-10.9998
▁financiers	-10.9998
▁quotidienne	-11
aff	-11.0001
▁samedi	-11.0002
▁roland	-11.0005
tou	-11.0007
▁tan	-11.0008
impact	-11.0011
▁pratiquement	-11.0012
ukraine	-11.0014
▁camps	-11.0016
▁em	-11.0016
▁prusse	-11.0019
ena	-11.0019
▁sépare	-11.0019
▁ed	-11.0021
▁ren	-11.0022
▁tchèque	-11.0023
▁officiels	-11.0023
iel	-11.0023
calais	-11.0028
zen	-11.0032
▁distinguer	-11.0033
▁victoria	-11.0037
enberg	-11.0038
trice	-11.004
▁découvertes	-11.0041
▁statistiques	-11.0042
artistes	-11.0042
▁consacrer	-11.0042
mou	-11.0042
▁couvert	-11.0044
effort	-11.0046
▁joint	-11.0046
▁plage	-11.0046
▁patients	-11.005
▁dotée	-11.005
▁évolution	-11.005
▁beauté	-11.0056
head	-11.0057
▁médiévale	-11.0057
▁initiale	-11.006
▁synthèse	-11.0068
▁universitaires	-11.0068
▁atelier	-11.007
▁pri	-11.0074
▁sections	-11.0074
cia	-11.0075
▁baptisé	-11.0075
▁exemples	-11.0077
▁nettement	-11.0077
▁(5	-11.0078
▁dizaines	-11.0084
inématographique	-11.0085
invention	-11.0087
▁bruit	-11.0087
▁supérieures	-11.0088
aube	-11.0089
tom	-11.0089
▁financières	-11.0094
▁marchés	-11.0094
▁navigation	-11.0095
immeuble	-11.0098
▁louise	-11.0098
▁steve	-11.0099
▁xi	-11.0106
▁spécialisé	-11.0106
▁démissionne	-11.0107
▁chronique	-11.0111
▁oblige	-11.0114
▁34	-11.0116
▁1933	-11.012
▁mérite	-11.0131
▁manifestation	-11.0133
▁god	-11.0133
▁minute	-11.0134
▁devoir	-11.0134
institution	-11.0135
▁démarche	-11.0136
▁tâche	-11.0137
▁sols	-11.014
▁affluent	-11.0142
▁1968,	-11.0142
▁mine	-11.0148
▁travaillant	-11.015
bains	-11.0151
engager	-11.0151
▁crime	-11.0152
▁entreprend	-11.0156
èle	-11.0159
▁bran	-11.0159
edi	-11.016
▁refusé	-11.0163
▁inclut	-11.0163
▁laval	-11.0165
▁syrie	-11.0165
▁municipale	-11.0165
▁battant	-11.0169
▁physiques	-11.017
bie	-11.0175
▁paysages	-11.0181
issent	-11.0186
▁gro	-11.0187
▁1965	-11.0189
▁pétrole	-11.019
▁poisson	-11.0191
▁verte	-11.0194
guer	-11.02
▁marques	-11.0201
▁électeurs	-11.0205
▁signifiant	-11.021
▁divisions	-11.0213
▁détails	-11.0215
▁guide	-11.0216
▁différences	-11.0217
▁légère	-11.0217
▁qualités	-11.0225
▁effectuer	-11.0226
pétersbourg	-11.0228
▁radar	-11.0233
els	-11.0233
▁tirs	-11.0234
événement	-11.0239
▁québécois	-11.0242
▁hol	-11.0243
▁créant	-11.0244
▁écologique	-11.0245
hon	-11.0246
▁renommé	-11.0248
▁gil	-11.0252
▁courbe	-11.0254
▁podium	-11.0256
▁colons	-11.0257
fiction	-11.0257
▁corporation	-11.026
▁stra	-11.0263
enfance	-11.0267
▁conte	-11.0269
mur	-11.0271
▁popularité	-11.0276
▁élue	-11.0276
▁messe	-11.0278
▁fans	-11.0279
▁passée	-11.0283
gl	-11.0283
▁détroit	-11.0283
▁froide	-11.0285
uses	-11.0285
▁iso	-11.0285
▁1939,	-11.0289
92	-11.029
▁assurée	-11.0292
▁circulaire	-11.0294
▁neu	-11.0298
▁1982,	-11.03
▁aidé	-11.0301
wer	-11.0302
▁viande	-11.0303
▁mes	-11.0304
▁indépendants	-11.0305
▁profite	-11.0305
▁south	-11.0307
onne	-11.0307
▁refus	-11.0307
éri	-11.0309
anna	-11.031
midi	-11.031
vant	-11.0315
▁grotte	-11.0315
ox	-11.0315
▁indien	-11.0317
▁pc	-11.0317
▁1951	-11.0318
old	-11.0319
andre	-11.032
▁tribune	-11.0324
nn	-11.0326
▁1981,	-11.0327
▁1964	-11.0328
abi	-11.0335
03	-11.0337
▁refuge	-11.034
84	-11.0341
aba	-11.0342
▁traditions	-11.0344
ae	-11.0346
sin	-11.0348
▁gran	-11.0348
▁house	-11.0353
-15	-11.0354
▁contemporains	-11.0357
▁emprisonné	-11.0359
▁métiers	-11.0359
▁tribus	-11.0359
▁majoritairement	-11.036
▁significative	-11.0361
inscription	-11.0365
▁utilisateurs	-11.0367
▁1983,	-11.0368
ile	-11.0371
▁symbolique	-11.0376
▁1929	-11.0379
▁accepté	-11.0379
▁irlandais	-11.0379
▁tunisie	-11.0381
7,	-11.0382
▁installés	-11.0382
▁ton	-11.0383
▁jette	-11.0383
▁pourra	-11.0384
▁bouche	-11.0385
▁histoires	-11.0386
incendie	-11.0387
▁numéros	-11.0387
▁exécutif	-11.039
intention	-11.0393
ér	-11.0395
57	-11.0396
▁cordes	-11.0397
▁garçons	-11.04
58	-11.0405
cat	-11.0407
▁tests	-11.0413
▁permit	-11.0414
▁littéraires	-11.0414
▁wal	-11.0415
▁graves	-11.0415
▁client	-11.0417
▁remet	-11.0421
▁tramway	-11.0422
▁procureur	-11.0423
▁arme	-11.0424
archipel	-11.0424
titre	-11.0428
▁foyer	-11.0431
▁provenance	-11.0431
▁figurent	-11.0433
assistance	-11.044
▁island	-11.044
▁land	-11.0442
е	-11.0447
ache	-11.0447
rhône	-11.0451
pel	-11.0452
▁descente	-11.0454
eb	-11.0457
▁affaire	-11.0458
avenue	-11.0458
▁restaurant	-11.0458
▁touché	-11.0458
▁racines	-11.046
▁jou	-11.0463
▁drame	-11.0464
▁jon	-11.0469
▁enceinte	-11.0471
lly	-11.0472
sou	-11.0475
▁hy	-11.0477
▁comptes	-11.048
▁modification	-11.0481
▁obtint	-11.0482
▁high	-11.0483
gues	-11.0487
ava	-11.0497
▁sec	-11.0498
▁tru	-11.0499
▁malheureusement	-11.05
sey	-11.0501
▁usine	-11.0502
american	-11.0505
▁1975,	-11.0507
nac	-11.0513
▁2002.	-11.0514
▁constructions	-11.0521
las	-11.0521
▁achevé	-11.0521
eva	-11.0523
▁toronto	-11.0524
ä	-11.0524
habitants	-11.0529
▁team	-11.0539
▁perspective	-11.0541
▁ross	-11.0542
▁évidence	-11.0545
type	-11.0546
gène	-11.0547
▁gilbert	-11.0547
▁1900	-11.0549
▁impérial	-11.0552
▁générales	-11.0553
▁écrivains	-11.0554
▁communistes	-11.0555
▁virus	-11.0556
cam	-11.0557
▁sexuelle	-11.0557
▁tentatives	-11.0563
▁richesse	-11.0563
▁précédemment	-11.0566
cel	-11.0568
kai	-11.0568
▁usines	-11.0569
▁carlos	-11.0569
▁culturelles	-11.057
▁1942,	-11.0571
ours	-11.0572
quatre	-11.0573
▁1958	-11.0578
outre	-11.0581
73	-11.0582
▁registre	-11.0588
▁firent	-11.059
_5	-11.0591
▁accompagnée	-11.0593
▁implique	-11.0594
▁matches	-11.0598
▁visibles	-11.06
▁vir	-11.0601
aut	-11.0602
hum	-11.0602
mant	-11.0603
▁divorce	-11.0605
▁passionné	-11.0606
▁lie	-11.0607
▁basket	-11.0609
ative	-11.061
▁chen	-11.0611
lock	-11.0613
▁disputé	-11.0617
démocrate	-11.0621
▁alentours	-11.0622
▁aussitôt	-11.0622
88	-11.0624
▁midi	-11.0626
▁1934	-11.0628
loi	-11.0628
▁pluie	-11.0628
irent	-11.0632
▁boul	-11.0632
▁copie	-11.0633
▁réellement	-11.0635
▁logement	-11.0637
▁majoritaire	-11.0638
équilibre	-11.064
▁ballon	-11.064
adoption	-11.0644
▁débats	-11.0647
▁permettait	-11.0648
pul	-11.0649
▁navale	-11.0649
▁1932	-11.065
▁récompense	-11.065
▁récolte	-11.0653
petit	-11.0654
▁israël	-11.0655
▁polonaise	-11.0658
▁forum	-11.066
▁achète	-11.0664
▁similaires	-11.0664
ives	-11.0665
▁venait	-11.067
bet	-11.0671
▁longs	-11.0671
gent	-11.0673
▁johnson	-11.0674
alexandre	-11.0675
wald	-11.0676
▁2001.	-11.0679
tum	-11.068
spec	-11.0681
▁défaut	-11.0682
▁madame	-11.0683
▁radical	-11.0683
▁protocole	-11.0686
▁anonyme	-11.0687
▁ep	-11.0691
lée	-11.0692
oul	-11.0692
arrestation	-11.0694
▁fro	-11.0695
▁phil	-11.0697
)"	-11.0699
▁suicide	-11.07
avions	-11.0702
instant	-11.0703
▁jugé	-11.0705
inverse	-11.0706
▁contrôler	-11.0706
ode	-11.0708
▁38	-11.071
▁décisions	-11.0718
▁flore	-11.0718
gate	-11.0719
croix	-11.0723
éro	-11.0724
▁incendie	-11.0724
▁cents	-11.0725
▁racing	-11.0727
▁adam	-11.0729
▁1966	-11.073
▁entendu	-11.073
angers	-11.0731
▁traits	-11.0732
▁massacre	-11.0734
sign	-11.0734
tsu	-11.0735
▁issues	-11.0735
▁cham	-11.0737
rate	-11.0739
▁cla	-11.0742
▁chimie	-11.0747
▁bertrand	-11.0748
▁particularité	-11.075
ault	-11.0752
▁représentée	-11.0756
rim	-11.0757
▁séance	-11.0758
▁constituer	-11.0761
▁virginie	-11.0762
▁giovanni	-11.0763
▁courants	-11.0763
▁1939	-11.0763
▁sexe	-11.0763
▁suspension	-11.0764
▁commandes	-11.0765
observatoire	-11.0767
pl	-11.077
emp	-11.077
▁évolué	-11.0773
▁ras	-11.0773
▁zéro	-11.0774
▁johann	-11.0776
▁chambres	-11.0782
▁forts	-11.0784
gué	-11.0785
▁trait	-11.0785
▁jim	-11.0786
▁mourir	-11.0787
▁dossier	-11.0788
écrire	-11.0788
▁75	-11.0793
▁reims	-11.0793
▁entré	-11.0794
▁parfaitement	-11.08
▁décennie	-11.08
slav	-11.0801
vir	-11.0802
▁orbite	-11.0802
▁1972,	-11.0802
▁privées	-11.0803
ago	-11.0812
rouge	-11.0812
▁descend	-11.0813
journal	-11.0817
ambassade	-11.0818
métrage	-11.0821
▁congo	-11.0822
▁confiée	-11.0823
audience	-11.0825
▁particules	-11.0827
▁adaptation	-11.0828
▁1946	-11.0828
liga	-11.0828
▁profonde	-11.0829
▁avis	-11.0829
▁free	-11.083
ém	-11.0831
▁cite	-11.0831
▁signes	-11.0832
▁adversaire	-11.0832
▁apparaître	-11.0833
▁stock	-11.0836
illi	-11.0836
▁motif	-11.084
▁aval	-11.0842
▁1979,	-11.0842
centre	-11.0844
▁égal	-11.0845
8,	-11.0846
▁blessures	-11.0847
▁accords	-11.0847
▁contribution	-11.085
▁reconnaître	-11.0851
▁doublé	-11.0851
▁global	-11.0854
▁kong	-11.0854
▁polémique	-11.0857
▁restes	-11.0858
agne	-11.0858
▁générique	-11.086
anneau	-11.0862
▁abandonnée	-11.0862
▁précédents	-11.0862
étr	-11.0863
54	-11.0865
▁patient	-11.0866
aquitaine	-11.0866
animal	-11.087
▁ibn	-11.087
▁transforme	-11.0873
▁illustre	-11.0873
▁chimique	-11.0875
mort	-11.0876
▁phare	-11.0878
▁poitiers	-11.0878
top	-11.0879
61	-11.0883
considérablement	-11.0883
▁adopte	-11.0887
▁%),	-11.0892
▁faciliter	-11.0893
▁commis	-11.0894
▁matrice	-11.0894
yan	-11.0895
▁aventures	-11.0896
▁accède	-11.0897
▁moto	-11.0897
ova	-11.0899
autorisation	-11.0899
▁étrangère	-11.09
▁clément	-11.09
king	-11.09
▁étienne	-11.0901
▁échanges	-11.0905
▁fermée	-11.0907
▁express	-11.0908
▁kou	-11.0913
dh	-11.0915
▁1974,	-11.0915
ort	-11.0917
▁logo	-11.0917
▁khan	-11.0918
▁industriels	-11.092
▁construites	-11.092
ore	-11.092
▁manches	-11.092
▁sculptures	-11.0925
▁vraisemblable	-11.0928
▁faibles	-11.0932
▁1942	-11.0934
▁batteur	-11.0935
▁tiré	-11.0939
charles	-11.094
▁1976,	-11.0941
▁démographique	-11.0942
▁nam	-11.0944
anda	-11.095
▁op	-11.0952
▁ste	-11.0954
num	-11.0956
▁disparaît	-11.096
▁brevet	-11.0966
rit	-11.0967
▁républicains	-11.0968
▁alex	-11.0969
▁partant	-11.0971
▁littoral	-11.0973
▁militants	-11.0973
▁plomb	-11.0974
ama	-11.0977
uch	-11.0978
ots	-11.098
▁réussite	-11.0981
▁tenté	-11.0987
ert	-11.0989
▁ceinture	-11.0993
▁1973,	-11.0993
▁particuliers	-11.0995
▁récits	-11.0996
▁comparaison	-11.0996
▁vendredi	-11.0996
▁transformer	-11.0997
▁gel	-11.0999
▁rural	-11.1
expansion	-11.1
51	-11.1001
▁society	-11.1005
ense	-11.1006
ora	-11.1007
▁gau	-11.1009
▁princes	-11.1009
indice	-11.101
yama	-11.1015
▁1943	-11.1019
▁échelle	-11.1021
ute	-11.1022
52	-11.1024
lat	-11.1024
lage	-11.1025
▁capture	-11.1028
▁naval	-11.1029
▁prénom	-11.1031
▁actifs	-11.1031
soit	-11.1031
▁circuits	-11.1031
▁mineurs	-11.1035
▁attribue	-11.1037
▁spécialement	-11.1038
▁aspect	-11.1039
▁juridiction	-11.104
gne	-11.104
▁sh	-11.1041
▁caen	-11.1043
lette	-11.1045
▁mentionne	-11.1047
▁linguistique	-11.1051
▁ernest	-11.1053
▁restée	-11.1056
▁principauté	-11.1056
mina	-11.1056
▁dieux	-11.1059
▁assiste	-11.1059
▁matières	-11.1061
▁amoureux	-11.1061
▁1978,	-11.1062
▁défenseur	-11.1063
▁portraits	-11.1064
▁médicale	-11.1065
▁configuration	-11.1068
aragon	-11.1069
▁collectivités	-11.107
▁commandé	-11.1071
▁couches	-11.1078
▁servent	-11.1079
▁eric	-11.108
œ	-11.1081
▁suppression	-11.1082
▁exprimés	-11.1083
▁épousa	-11.1083
illant	-11.1086
▁comprise	-11.1087
▁compositions	-11.1088
▁archéologiques	-11.1094
▁exclu	-11.1095
▁cup	-11.1097
▁windows	-11.1097
tru	-11.1099
▁vaisseaux	-11.1099
stra	-11.11
long	-11.1103
etti	-11.1104
herbe	-11.1105
▁belges	-11.1106
▁phénomènes	-11.1106
▁occidental	-11.1107
▁quasiment	-11.1107
ding	-11.1107
▁salariés	-11.1108
▁manoir	-11.1109
▁placés	-11.1113
▁ordonné	-11.1114
wel	-11.1114
▁instrument	-11.1114
time	-11.1116
quant	-11.1117
▁comprennent	-11.1122
▁prototype	-11.1127
accident	-11.1127
actualité	-11.1127
▁(14	-11.113
▁master	-11.1132
bia	-11.1132
▁terminée	-11.1132
▁1910	-11.1133
▁investi	-11.1134
▁yves	-11.1134
pot	-11.1134
▁dauphin	-11.1135
▁attaqué	-11.1137
▁cadet	-11.1137
▁rendant	-11.1138
▁directrice	-11.1141
face	-11.1141
▁professeurs	-11.1142
▁1977,	-11.1144
▁turc	-11.1148
▁confié	-11.1153
appuie	-11.1153
▁rangs	-11.1158
▁1925	-11.1159
mad	-11.116
▁mécanisme	-11.1162
▁rassemble	-11.1163
▁ken	-11.1165
▁assisté	-11.1168
dic	-11.1169
▁play	-11.1169
▁rédigé	-11.1175
▁charlotte	-11.1176
▁48	-11.1179
▁tribu	-11.118
▁floride	-11.1182
rant	-11.1184
▁campus	-11.1192
▁apparait	-11.1192
▁mani	-11.1193
▁bible	-11.1194
="	-11.1198
noy	-11.12
▁opposé	-11.1202
▁sentiment	-11.1202
▁hé	-11.1205
▁600	-11.1206
▁échoue	-11.1206
▁bulle	-11.1206
▁brièvement	-11.1208
▁viii	-11.121
och	-11.121
quer	-11.121
▁températures	-11.1217
▁plateforme	-11.1218
▁lutter	-11.1219
▁cardiaque	-11.1219
▁variations	-11.122
▁blé	-11.1224
▁comprenait	-11.1225
▁animal	-11.1226
▁monsieur	-11.1227
ats	-11.1228
aj	-11.1228
▁42	-11.123
adn	-11.1233
▁avenue	-11.1234
▁1924	-11.1237
▁dispositions	-11.1238
▁verts	-11.1239
▁variétés	-11.124
▁1941,	-11.1241
médi	-11.1241
mais	-11.1243
sée	-11.125
occupe	-11.1251
▁produisent	-11.1251
▁1963	-11.1255
▁nobles	-11.1255
▁monarchie	-11.1257
tv	-11.1257
▁1928	-11.1258
▁attaché	-11.1258
rue	-11.126
écurie	-11.1263
▁modes	-11.1263
▁museum	-11.1266
▁spécialistes	-11.1266
rons	-11.127
nor	-11.1273
▁pil	-11.1274
▁chaire	-11.1276
len	-11.1277
neur	-11.1279
comp	-11.128
atteindre	-11.1281
▁eurent	-11.1283
▁parole	-11.1283
▁secrète	-11.1284
▁stephen	-11.1285
▁signer	-11.1285
▁sultan	-11.1288
▁violon	-11.129
▁thierry	-11.129
▁serbie	-11.129
▁suis	-11.1292
▁bons	-11.1294
ring	-11.1295
parole	-11.1296
▁modifier	-11.1298
rég	-11.1298
échapper	-11.1298
▁regroupant	-11.1299
▁auxquels	-11.1299
▁progression	-11.1301
▁scandale	-11.1301
rock	-11.1306
pic	-11.1307
▁utilisation	-11.1307
▁souci	-11.1308
▁hollande	-11.1308
▁37	-11.1309
▁témoigne	-11.131
▁rom	-11.131
-5	-11.131
▁référendum	-11.1312
▁vaincu	-11.1313
▁calme	-11.1313
▁tue	-11.1315
▁barbe	-11.1315
▁graphique	-11.1317
▁patrouille	-11.1325
isent	-11.1326
▁1948	-11.133
das	-11.1332
pli	-11.1332
▁dépasse	-11.1334
▁argentine	-11.1334
▁émile	-11.1338
▁hou	-11.1339
pri	-11.1342
atte	-11.1343
▁éclate	-11.1343
métrique	-11.1343
lig	-11.1344
▁mario	-11.1347
72	-11.1348
issement	-11.1348
3.	-11.135
odi	-11.1355
▁phases	-11.1355
▁magnétique	-11.1358
▁magasins	-11.1359
▁exposé	-11.136
osse	-11.1361
ifié	-11.1364
▁attiré	-11.137
▁francophone	-11.1371
▁émis	-11.1373
▁marin	-11.1373
▁combattants	-11.1376
▁masque	-11.1377
▁recruté	-11.1379
bul	-11.138
».	-11.1383
▁1999.	-11.1386
▁vacances	-11.1386
9,	-11.1391
▁united	-11.1393
▁moine	-11.1393
▁précédentes	-11.1402
▁will	-11.1403
▁améliorer	-11.1403
▁perdent	-11.1405
cule	-11.1407
▁renault	-11.1407
irak	-11.141
▁benoît	-11.1411
▁1967,	-11.1411
▁hong	-11.1412
▁transformée	-11.1414
▁remportant	-11.1414
▁cau	-11.1415
▁sar	-11.1415
▁précipitations	-11.1417
▁champagne	-11.1421
▁colombie	-11.1421
hab	-11.1424
▁génétique	-11.1425
▁régionaux	-11.1425
▁mat	-11.1427
▁comics	-11.1428
▁circonstances	-11.1431
▁prime	-11.1432
▁baccalauréat	-11.1433
▁tf	-11.1435
▁dialogue	-11.1436
▁loge	-11.144
nin	-11.1442
▁1961	-11.1442
▁award	-11.1443
▁1931	-11.1446
▁intense	-11.145
▁ref	-11.1453
▁recul	-11.1453
▁logiciels	-11.1456
?	-11.1457
▁vignoble	-11.1463
gh	-11.1465
▁extrait	-11.1466
espèces	-11.1466
habitat	-11.1472
gis	-11.1475
corne	-11.1476
▁venue	-11.148
▁rat	-11.1481
officier	-11.1483
ă	-11.1486
▁créés	-11.1486
▁masculine	-11.1486
▁terminer	-11.149
▁clergé	-11.1491
chaussée	-11.1491
ç	-11.1494
▁brian	-11.1495
rica	-11.15
para	-11.15
▁1947	-11.15
▁remettre	-11.1503
▁collecte	-11.1503
▁constantin	-11.1505
▁river	-11.1506
▁étoile	-11.1506
▁christianisme	-11.1507
▁tal	-11.1507
▁coule	-11.1508
▁cède	-11.1509
shire	-11.151
▁bond	-11.1513
▁retiré	-11.1514
▁dragon	-11.1518
otte	-11.152
pf	-11.152
anjou	-11.1529
▁revues	-11.1531
blanc	-11.1532
▁traités	-11.1538
▁identique	-11.1542
▁chaud	-11.1544
ever	-11.1544
▁pistes	-11.1545
▁biologique	-11.1549
▁prépare	-11.1553
rose	-11.1553
▁caractérise	-11.1554
nar	-11.1555
camp	-11.1558
▁synagogue	-11.1559
▁1969,	-11.1564
▁matériau	-11.1564
amant	-11.1565
pha	-11.1567
▁témoignage	-11.1573
obligation	-11.1576
▁compagnons	-11.1577
▁rencontrent	-11.1581
▁militant	-11.1583
▁genres	-11.1585
opérateur	-11.1588
▁métrage	-11.1591
▁ag	-11.1594
▁organisées	-11.1594
▁tirage	-11.1595
▁délégué	-11.1598
▁variables	-11.1599
▁artistiques	-11.16
série	-11.16
▁parviennent	-11.1603
épaisseur	-11.1603
▁mali	-11.1604
▁tronçon	-11.1604
ovitch	-11.1605
▁phrase	-11.1606
▁coureurs	-11.1607
sans	-11.161
georges	-11.1612
applique	-11.1613
▁neuro	-11.1613
pla	-11.1616
idae	-11.1618
tran	-11.1619
azur	-11.1619
▁hip	-11.1623
▁tube	-11.1623
▁win	-11.1624
issa	-11.1624
épouse	-11.1626
▁gré	-11.1627
nent	-11.163
▁cheveux	-11.1634
▁identité	-11.1635
▁retenu	-11.1636
gant	-11.1637
ller	-11.1641
▁créateur	-11.1642
▁félix	-11.1642
▁vraie	-11.1645
▁continuent	-11.1648
▁invités	-11.1649
tation	-11.1652
ref	-11.1657
▁considérer	-11.1658
▁comportant	-11.166
ame	-11.166
▁paiement	-11.1663
▁emploi	-11.1664
zin	-11.1672
mm	-11.1673
▁personnels	-11.1673
▁64	-11.1675
▁incarne	-11.1677
occupant	-11.168
▁rassemblement	-11.1681
nk	-11.1683
▁tou	-11.1684
▁1912	-11.1685
▁entra	-11.1688
▁méta	-11.1688
▁marchands	-11.1689
▁engagement	-11.1689
▁baroque	-11.1689
▁décrite	-11.169
▁lion	-11.1694
▁psycho	-11.1697
ech	-11.1701
▁1956	-11.1703
▁rentrer	-11.1707
gas	-11.1707
▁rap	-11.1707
habitation	-11.1708
▁"".	-11.1708
▁cache	-11.1708
israël	-11.1709
tisme	-11.171
lec	-11.171
▁vols	-11.171
ize	-11.1711
▁1914,	-11.1711
vr	-11.1711
live	-11.1713
▁gang	-11.1713
▁compétence	-11.1713
▁(12	-11.1715
hir	-11.1715
▁mosquée	-11.1722
▁favoriser	-11.1724
four	-11.1725
obstacle	-11.1726
▁amène	-11.1726
▁thermique	-11.1732
▁naturellement	-11.1733
▁blues	-11.1733
hom	-11.1734
chy	-11.1742
▁remonter	-11.1743
gul	-11.1744
▁armé	-11.1744
▁poursuivi	-11.1745
▁monts	-11.1746
▁récente	-11.1747
grad	-11.1747
▁masculin	-11.1749
▁domine	-11.1749
pou	-11.175
▁géorgie	-11.175
▁observé	-11.1751
▁propositions	-11.1754
▁gérer	-11.1756
▁courts	-11.1756
▁1959	-11.1757
▁adoptée	-11.176
vér	-11.1761
dt	-11.1761
▁fonder	-11.1762
▁monaco	-11.1764
▁vé	-11.1765
▁sensible	-11.1767
▁protéines	-11.1768
▁raid	-11.177
▁héritier	-11.177
ika	-11.1771
▁énergétique	-11.1773
▁témoin	-11.1774
dj	-11.1775
ward	-11.1775
▁vents	-11.1776
▁anniversaire	-11.1777
inc	-11.1778
aw	-11.1778
▁rebelles	-11.1782
▁55	-11.1785
rance	-11.1785
▁réserves	-11.1789
▁catastrophe	-11.179
▁pyrénées	-11.1793
▁reconstruit	-11.1793
▁serpent	-11.1793
▁rejet	-11.1797
▁1921	-11.1798
▁(13	-11.1798
▁trentaine	-11.1798
▁géré	-11.18
▁menées	-11.1801
▁1941	-11.1803
attente	-11.1803
oma	-11.1804
▁vladimir	-11.1807
▁finlande	-11.1812
▁relégué	-11.1815
lip	-11.1816
autonomie	-11.1819
▁classés	-11.1819
▁she	-11.1821
▁open	-11.1822
▁tournées	-11.1822
▁compagnon	-11.1823
▁augmenter	-11.1825
chan	-11.1829
▁communautaire	-11.1829
▁racine	-11.183
▁arbre	-11.1833
épi	-11.1836
ettes	-11.184
▁1914	-11.1844
avère	-11.1847
mac	-11.1848
▁mâle	-11.1849
▁turin	-11.185
▁germanique	-11.1854
▁rivières	-11.1855
hof	-11.1856
taire	-11.1857
organisme	-11.1858
▁reçoivent	-11.1858
arrêter	-11.1859
éléments	-11.186
cycl	-11.1861
▁statues	-11.1861
escadre	-11.1865
▁électorale	-11.1869
cq	-11.187
▁commerciales	-11.187
▁dessinateur	-11.1871
▁cerveau	-11.1872
▁présidente	-11.1875
▁exactement	-11.1876
▁ballet	-11.1877
▁quint	-11.1878
gs	-11.1879
▁choisie	-11.1881
▁dommages	-11.1882
harmonie	-11.1882
▁rep	-11.1883
aille	-11.1885
▁hel	-11.1886
▁amour	-11.1887
▁1926	-11.189
améliorer	-11.189
▁manga	-11.189
▁•	-11.1893
▁entraîné	-11.1896
algorithme	-11.1897
vas	-11.1897
▁sim	-11.1899
▁tomber	-11.19
trait	-11.19
▁caisse	-11.1901
▁cab	-11.1902
over	-11.1904
▁1936	-11.1904
▁entend	-11.1905
garonne	-11.1905
▁por	-11.1907
rid	-11.1907
▁commerciaux	-11.1907
▁pianiste	-11.1907
62	-11.1907
▁musées	-11.1908
▁protestante	-11.1909
ssy	-11.1912
hat	-11.1913
▁générations	-11.1918
innovation	-11.1918
▁grille	-11.1919
▁posé	-11.192
cène	-11.1921
▁roues	-11.1921
▁débuté	-11.1922
▁démonstration	-11.1922
▁adversaires	-11.1922
chef	-11.1923
▁chili	-11.1923
▁destin	-11.1923
▁conduire	-11.193
urban	-11.1932
▁républicaine	-11.1933
▁grosse	-11.1935
▁lacs	-11.1941
tti	-11.1941
attentat	-11.1942
œuvres	-11.1943
▁augmenté	-11.1943
euil	-11.1943
ates	-11.1944
▁toponyme	-11.1944
▁hongrois	-11.1945
▁empêcher	-11.1945
osa	-11.1946
▁tibet	-11.1946
▁pes	-11.1946
rama	-11.1949
▁coupé	-11.195
▁traversé	-11.1951
individu	-11.1954
sing	-11.1954
▁marge	-11.1956
▁volontaire	-11.1961
▁électro	-11.1962
▁dissolution	-11.1963
lio	-11.1964
▁cos	-11.1964
▁friedrich	-11.1976
▁permanent	-11.1976
▁musiques	-11.1978
▁clinique	-11.1983
▁musicales	-11.1987
▁apparu	-11.1987
habit	-11.1988
atoire	-11.1989
▁1960.	-11.1989
espoir	-11.1991
étang	-11.1991
▁faune	-11.1992
exploration	-11.1993
rem	-11.1994
▁remportent	-11.1994
dos	-11.1995
▁préfère	-11.1995
ald	-11.1995
▁1946,	-11.1997
issi	-11.1997
igné	-11.1997
chère	-11.1999
ić	-11.2
▁dijon	-11.2001
59	-11.2001
yne	-11.2002
▁ap	-11.2002
▁collective	-11.2002
▁lauréat	-11.2005
▁repos	-11.201
▁traditionnels	-11.2011
cur	-11.2011
▁sncf	-11.2012
▁accordé	-11.2013
▁anime	-11.2014
▁championship	-11.2014
cp	-11.2015
alphabet	-11.2015
back	-11.2016
inger	-11.2017
▁âgée	-11.2018
▁éliminatoires	-11.2021
jou	-11.2023
▁paraître	-11.2031
ks	-11.2035
intensité	-11.2035
▁ten	-11.2038
▁destinées	-11.2039
▁musulmane	-11.2043
neau	-11.2045
▁1971,	-11.2046
▁passages	-11.2048
▁vélo	-11.2049
oir	-11.2049
▁routier	-11.205
_2	-11.2051
▁suggère	-11.2052
▁daté	-11.2054
▁expédition	-11.2056
▁intégrée	-11.2057
gré	-11.2058
▁mir	-11.2059
▁inaugurée	-11.206
parti	-11.2062
▁stone	-11.2063
▁(6	-11.2064
rine	-11.2068
▁cannes	-11.2069
▁lang	-11.2069
▁mariée	-11.2071
patri	-11.2073
▁gold	-11.2074
arte	-11.2075
▁photographe	-11.2077
▁coque	-11.2078
rol	-11.2078
▁che	-11.2086
▁partielle	-11.2087
▁dixième	-11.2087
bis	-11.2088
▁aérien	-11.2088
▁évènements	-11.2088
▁publia	-11.2088
▁repas	-11.2089
sum	-11.2089
▁gué	-11.2089
▁définitive	-11.209
▁extérieur	-11.2092
▁puissante	-11.2092
borg	-11.2094
▁dominant	-11.2094
▁39	-11.2096
ator	-11.2096
aigu	-11.2102
ico	-11.2105
▁retenue	-11.2107
tec	-11.2107
▁civilisation	-11.2108
house	-11.2108
unesco	-11.211
▁biographie	-11.211
amiens	-11.2112
▁subsiste	-11.2113
▁nombres	-11.2114
▁tennis	-11.2114
▁tome	-11.2117
▁bbc	-11.2119
▁conçue	-11.2119
▁lausanne	-11.2119
▁limiter	-11.2127
▁fréquent	-11.2127
▁fonte	-11.2128
▁consul	-11.2129
▁footballeur	-11.2131
▁wilson	-11.2133
▁archéologique	-11.2135
▁séquence	-11.2135
haut	-11.2141
▁wilhelm	-11.2142
▁chevaliers	-11.2146
▁existait	-11.2148
▁spirituel	-11.2151
▁satellites	-11.2152
▁thor	-11.2152
bot	-11.2153
▁dégâts	-11.2154
▁belles	-11.2155
tait	-11.2155
▁convoi	-11.2156
▁amateurs	-11.2157
équivalent	-11.2158
▁serbe	-11.2159
▁alimentaire	-11.2159
tech	-11.2159
▁calcaire	-11.2161
éthique	-11.2161
▁kat	-11.2162
▁mâles	-11.2164
▁plainte	-11.2165
▁kg	-11.2165
▁day	-11.2167
▁accorde	-11.217
▁résoudre	-11.2172
pur	-11.2173
▁basses	-11.2174
▁cul	-11.2175
organiser	-11.2178
▁bull	-11.2179
exprimer	-11.2184
insurrection	-11.2185
▁entretien	-11.2186
▁pl	-11.2186
▁absolue	-11.2187
▁coûts	-11.2188
hall	-11.2193
élimination	-11.2193
▁bach	-11.2195
▁oriental	-11.2195
nus	-11.2201
▁femelle	-11.2204
gio	-11.2204
▁fameux	-11.2204
vez	-11.2205
▁aires	-11.2206
ê	-11.2206
▁conclu	-11.2207
national	-11.221
▁nar	-11.221
▁plaisir	-11.2211
▁luxe	-11.2211
▁rendez	-11.2212
▁notable	-11.2214
contre	-11.2216
ké	-11.2218
etta	-11.2219
▁placer	-11.2219
▁décroche	-11.2222
horloge	-11.2223
▁alexander	-11.2228
▁convaincre	-11.2229
▁épousé	-11.223
▁rayonnement	-11.223
▁lourdes	-11.2233
▁protégé	-11.2237
▁navy	-11.2239
ouvrir	-11.2245
gat	-11.2246
▁soutenue	-11.225
▁1957	-11.2251
▁cristal	-11.2251
▁ressemble	-11.2252
▁rival	-11.2254
▁chimiques	-11.2254
war	-11.2256
▁traiter	-11.2257
▁1927	-11.2257
▁250	-11.2258
▁wood	-11.2259
▁trajet	-11.2259
▁1954	-11.2262
▁typique	-11.2262
aura	-11.2262
▁pèlerinage	-11.2263
▁sicile	-11.2263
▁envisage	-11.2263
▁partagé	-11.2264
▁rébellion	-11.2264
▁couramment	-11.2264
▁équipée	-11.2265
▁cli	-11.2266
ios	-11.227
▁1922	-11.227
▁accompagne	-11.2271
mart	-11.2273
▁industries	-11.2274
▁collines	-11.2274
▁constituant	-11.2275
▁coupable	-11.2277
▁réformes	-11.228
▁illustré	-11.228
utilité	-11.228
▁1867	-11.228
orange	-11.2283
▁éventuellement	-11.2283
▁taylor	-11.2285
▁denis	-11.2286
▁hausse	-11.2287
sal	-11.2287
▁dépendant	-11.2288
▁mensuel	-11.229
▁dérivé	-11.2294
▁descendant	-11.2294
rez	-11.2296
isées	-11.2301
cœur	-11.2311
▁kal	-11.2312
▁impliqué	-11.2312
offensive	-11.2314
ship	-11.2315
▁1964,	-11.2317
▁bavière	-11.2317
▁fourni	-11.2318
▁ingénieurs	-11.2318
▁poétique	-11.2319
implantation	-11.2319
▁géant	-11.2322
nement	-11.2324
▁52	-11.2324
gress	-11.2325
▁bleue	-11.2326
▁décerné	-11.2327
▁tur	-11.2328
oxygène	-11.2333
▁gagnant	-11.2333
▁erreur	-11.2334
▁ajouté	-11.2334
▁1923	-11.2334
▁1955	-11.2334
▁prochaine	-11.234
[	-11.2342
âtre	-11.2342
▁immense	-11.2346
▁botanique	-11.2348
▁équivalent	-11.2348
ona	-11.2352
▁fonctionne	-11.2355
▁fox	-11.2355
gle	-11.2356
▁faisaient	-11.2358
uci	-11.2358
▁déplacer	-11.2359
▁davis	-11.2359
▁soin	-11.236
▁écossais	-11.2361
super	-11.2362
▁françoise	-11.2366
▁singles	-11.2367
▁gaston	-11.2367
phon	-11.2369
▁mos	-11.237
fc	-11.2371
▁incapable	-11.2373
arrête	-11.2374
▁1962,	-11.2375
▁références	-11.2375
▁boule	-11.2377
att	-11.2378
▁croire	-11.2384
zac	-11.2385
▁road	-11.2387
▁rendement	-11.2389
▁augustin	-11.2393
▁1949	-11.2398
▁combinaison	-11.2399
▁idée	-11.24
▁orthodoxe	-11.24
▁center	-11.2401
▁établir	-11.2404
hai	-11.2404
▁estimée	-11.2406
exploit	-11.2407
▁recettes	-11.2408
▁démocrate	-11.241
bos	-11.2412
▁envoyés	-11.2412
▁départementales	-11.2412
▁terminant	-11.2412
uer	-11.2412
▁conformément	-11.2413
▁44	-11.2415
roch	-11.2415
▁1892	-11.2421
▁toulon	-11.2422
▁législation	-11.2422
▁lucien	-11.2423
impôt	-11.2423
▁feux	-11.2424
▁ambassadeur	-11.2424
▁puy	-11.2424
▁bank	-11.2424
▁hasard	-11.2424
encontre	-11.2426
vari	-11.2426
▁quête	-11.2427
▁week	-11.2427
dés	-11.2428
▁valence	-11.2432
▁prière	-11.2432
▁semblable	-11.2434
▁apprécié	-11.2436
égard	-11.2436
lum	-11.2436
▁real	-11.2438
.<	-11.244
vaux	-11.2446
▁finir	-11.2446
▁rob	-11.2447
▁chau	-11.2447
▁linéaire	-11.2449
homo	-11.2459
▁globale	-11.246
oxy	-11.2461
▁1918,	-11.2461
dine	-11.2463
▁médical	-11.2464
uel	-11.2464
▁robin	-11.2469
▁grandeur	-11.2473
▁fau	-11.2477
▁bau	-11.2477
▁game	-11.2478
▁tré	-11.2479
▁psychologie	-11.2479
▁blue	-11.2482
▁abattu	-11.2487
nation	-11.2491
try	-11.2492
villa	-11.2492
▁conversion	-11.2492
uma	-11.2493
▁concession	-11.2494
▁considèrent	-11.2495
▁canadiens	-11.2498
▁euro	-11.2498
▁asie	-11.2499
provence	-11.2499
voy	-11.25
▁hugo	-11.2502
gram	-11.2503
▁activement	-11.2503
▁vau	-11.2503
intégrer	-11.2504
▁rendit	-11.2512
élaboration	-11.2513
▁fixé	-11.2513
▁sèche	-11.2517
▁fenêtre	-11.2517
▁trouvant	-11.2518
▁coulé	-11.2519
▁horizontal	-11.2522
▁libérer	-11.2525
eure	-11.2526
isle	-11.2527
▁jésuites	-11.2532
▁simultanément	-11.2534
humour	-11.2534
nz	-11.2539
▁continentale	-11.2539
▁théories	-11.254
▁guère	-11.2541
associe	-11.2543
champ	-11.2544
▁entourée	-11.2545
▁universel	-11.2546
uf	-11.2549
▁1905	-11.2549
▁comtesse	-11.2551
▁communs	-11.2553
rov	-11.2553
▁contraintes	-11.2553
▁univers	-11.2554
▁1936,	-11.2554
▁traditionnelles	-11.2554
▁déroulent	-11.2555
▁shin	-11.2556
▁indiqué	-11.256
roman	-11.2563
▁tentent	-11.2564
embouchure	-11.2565
▁gand	-11.2571
▁gares	-11.2571
cub	-11.2571
jour	-11.2572
▁souligne	-11.2577
core	-11.2578
nées	-11.2578
▁gustave	-11.2582
▁verbe	-11.2583
▁débarquement	-11.2584
▁détail	-11.2587
py	-11.2588
lor	-11.259
▁notoriété	-11.2592
eri	-11.2592
iana	-11.2594
lés	-11.2594
▁vues	-11.2596
▁convaincu	-11.2596
▁réservé	-11.2599
▁championne	-11.26
just	-11.2601
▁effectivement	-11.2602
vic	-11.2607
celle	-11.2609
▁autorisé	-11.261
▁preuves	-11.261
▁fantastique	-11.261
▁préside	-11.2612
▁réputé	-11.2612
▁mill	-11.2614
gère	-11.2614
▁halle	-11.2614
▁cho	-11.2615
▁répression	-11.2617
▁éponyme	-11.2619
▁poche	-11.2621
pd	-11.2622
▁georg	-11.2622
ito	-11.2624
extraction	-11.2624
mut	-11.2626
ult	-11.2627
▁voûte	-11.2627
riv	-11.2628
▁métropolitaine	-11.2632
anciens	-11.2636
▁collègues	-11.2637
▁mod	-11.264
bri	-11.2641
fran	-11.2642
ontario	-11.2643
▁indiens	-11.2644
▁berger	-11.2647
éclairage	-11.265
▁impact	-11.2651
▁plaques	-11.2651
épidémie	-11.2653
▁qualifier	-11.266
▁diffuse	-11.2663
▁achevée	-11.2666
▁1913	-11.2667
▁roches	-11.2669
▁carr	-11.267
▁partition	-11.267
argentine	-11.2671
▁blocs	-11.2673
▁times	-11.2674
▁croit	-11.2674
▁ligues	-11.2674
▁policiers	-11.2678
ibilité	-11.268
ifs	-11.2681
▁flandre	-11.2685
▁stockage	-11.2686
▁constate	-11.2687
▁fred	-11.2687
engagement	-11.2688
▁autorité	-11.2688
▁arrêt	-11.2691
▁talents	-11.2695
▁neuvième	-11.2696
▁vain	-11.2697
stre	-11.2697
amp	-11.2698
▁statistique	-11.27
▁jérôme	-11.2701
▁management	-11.2702
acier	-11.2703
arabe	-11.2708
▁culturels	-11.271
▁serment	-11.2711
nou	-11.2711
▁tombé	-11.2714
▁confusion	-11.2714
▁1938	-11.2715
icité	-11.2716
informations	-11.2716
ordinateur	-11.2716
▁aime	-11.2718
▁appartenait	-11.2718
▁paroissiale	-11.2719
▁carburant	-11.2719
▁commandée	-11.2719
▁module	-11.2719
▁sand	-11.2719
▁1958,	-11.2722
▁régulier	-11.2724
▁chal	-11.2725
oro	-11.2728
▁pente	-11.2728
lent	-11.2731
▁hiver	-11.2732
émi	-11.2734
▁hebdomadaire	-11.2735
terie	-11.2735
▁possédant	-11.2735
ett	-11.274
▁photographies	-11.274
▁charente	-11.2742
▁organisés	-11.2743
▁prolonge	-11.2743
▁arriver	-11.2746
▁stéphane	-11.2746
▁(10	-11.2747
ober	-11.2747
▁harry	-11.2748
▁adaptée	-11.2749
▁miroir	-11.275
ambi	-11.2751
▁yu	-11.2753
acre	-11.2755
▁fonctionnaires	-11.2758
▁chargés	-11.2758
▁1965,	-11.2765
ith	-11.2766
▁1953	-11.2766
indre	-11.2768
▁fortifications	-11.2771
▁publiées	-11.2773
illo	-11.2773
▁800	-11.2773
▁érigé	-11.2777
▁option	-11.2778
▁tsar	-11.2781
-10	-11.2782
▁œufs	-11.2783
ple	-11.2784
▁fuir	-11.2785
▁gay	-11.2785
▁lundi	-11.2786
▁ron	-11.2787
▁signée	-11.2788
▁scolaires	-11.2788
exil	-11.2789
▁appelées	-11.279
oka	-11.2792
▁cir	-11.2792
▁tro	-11.2793
▁1966,	-11.2796
▁capables	-11.2798
▁rez	-11.2798
marine	-11.2799
▁disposent	-11.2801
▁galles	-11.2801
porte	-11.2804
▁bref	-11.2806
▁serre	-11.2811
▁andrew	-11.2814
ral	-11.2814
▁rapides	-11.2814
▁groupement	-11.2817
▁1919	-11.2817
▁lecteur	-11.2818
yi	-11.282
emi	-11.2823
▁énorme	-11.2824
▁apporté	-11.2824
occuper	-11.2825
▁gloire	-11.2825
ington	-11.2828
▁office	-11.2832
phe	-11.2833
uve	-11.2834
sis	-11.2835
▁bombe	-11.2836
▁gardes	-11.2837
effectue	-11.2839
▁poussée	-11.284
rif	-11.2841
▁individu	-11.2842
ignac	-11.2845
▁cons	-11.2847
▁localement	-11.2848
▁extraordinaire	-11.2849
▁sarah	-11.2849
cier	-11.285
équi	-11.2853
▁ottoman	-11.2854
▁hitler	-11.2855
▁1998.	-11.2855
▁familial	-11.2856
examen	-11.2857
▁converti	-11.2857
▁prétend	-11.286
▁vallées	-11.286
▁saxe	-11.2861
royal	-11.2861
rien	-11.2861
montre	-11.2866
▁internes	-11.2867
▁portait	-11.2869
▁1956,	-11.2869
▁varsovie	-11.2871
chemin	-11.2872
▁montrant	-11.2872
press	-11.2873
▁1911	-11.2873
▁41	-11.2874
▁graines	-11.2875
arra	-11.2875
▁crête	-11.2876
inauguration	-11.2877
emporte	-11.2877
fille	-11.2877
▁menant	-11.2877
▁act	-11.2879
▁manager	-11.288
tract	-11.2881
appliquer	-11.2882
▁normal	-11.2883
adapter	-11.2883
▁vouloir	-11.2884
▁tang	-11.2886
▁gaulle	-11.2889
▁élevés	-11.2889
▁conforme	-11.2889
ié	-11.289
▁1901	-11.2892
agir	-11.2895
tori	-11.2897
région	-11.29
▁vive	-11.2901
▁1952	-11.2902
▁positive	-11.2904
▁exploité	-11.2905
ivoire	-11.2905
▁signification	-11.2906
▁romantique	-11.2907
▁causes	-11.2907
▁bonaparte	-11.2908
cale	-11.2909
bur	-11.2911
▁provoquer	-11.2914
▁observations	-11.2914
ism	-11.2915
▁maintient	-11.2918
fra	-11.2918
▁détient	-11.2919
▁marquer	-11.2919
▁communications	-11.2921
▁grandit	-11.2922
▁ford	-11.2924
nique	-11.2924
iff	-11.2925
▁lourds	-11.2927
▁conservée	-11.2928
clé	-11.2928
▁socialistes	-11.2931
dio	-11.2932
pc	-11.2936
▁subir	-11.2937
▁continuité	-11.2937
▁cuir	-11.2937
▁1947,	-11.2937
▁spirituelle	-11.2939
▁1938,	-11.2939
▁ya	-11.294
entrer	-11.2941
pole	-11.2942
▁colère	-11.2942
▁observe	-11.2943
▁exige	-11.2946
▁glo	-11.2948
▁2019.	-11.2951
tifs	-11.2952
▁notables	-11.2954
lov	-11.2954
▁attesté	-11.2954
▁quittent	-11.2956
▁amont	-11.2956
▁pompe	-11.2958
▁65	-11.2959
▁prononcé	-11.296
▁sauve	-11.2961
▁kara	-11.2962
èvre	-11.2963
▁kit	-11.2966
▁positif	-11.2967
▁dangereux	-11.2969
▁hay	-11.297
▁philadelphie	-11.2971
soci	-11.2972
niers	-11.2972
flu	-11.2975
▁travaillent	-11.2977
▁hyper	-11.2979
▁diego	-11.298
▁exil	-11.298
▁théorique	-11.2981
eve	-11.2982
deutsch	-11.2983
▁1888	-11.2986
▁engagée	-11.2991
▁éc	-11.2993
▁43	-11.2993
effectif	-11.2994
haus	-11.2995
▁douglas	-11.2997
vingt	-11.2999
▁dénommé	-11.3
▁ivan	-11.3003
▁firme	-11.3005
fri	-11.3007
▁rond	-11.301
▁triomphe	-11.301
oth	-11.3012
pays	-11.3012
▁ravi	-11.3013
tax	-11.3014
▁franz	-11.3015
▁nommés	-11.302
▁hydro	-11.302
yu	-11.3021
▁chanter	-11.3025
▁architectes	-11.3026
lit	-11.3027
ssement	-11.3027
ping	-11.3028
rick	-11.3028
▁suspendu	-11.3029
philippe	-11.3029
bien	-11.303
andro	-11.303
▁aériennes	-11.3032
▁variante	-11.3033
identification	-11.3033
▁prononce	-11.3035
effectuer	-11.3035
▁malades	-11.3037
çon	-11.3037
▁léopold	-11.304
▁1963,	-11.3044
▁pac	-11.3044
iron	-11.3046
▁attire	-11.3047
eng	-11.3047
▁gain	-11.3048
▁sent	-11.3048
olive	-11.3053
omi	-11.3053
▁poudre	-11.3058
▁infrastructures	-11.3059
▁flèche	-11.3059
▁priorité	-11.3061
▁rejoignent	-11.3061
igo	-11.3061
▁mén	-11.3062
▁marco	-11.3063
zio	-11.3063
▁caché	-11.3064
▁colonisation	-11.3065
▁territoriales	-11.3069
fon	-11.3071
▁box	-11.3073
▁corruption	-11.3074
▁concurrent	-11.3075
ède	-11.3076
▁pres	-11.3077
qa	-11.3079
guin	-11.308
▁pau	-11.3081
▁rives	-11.3082
▁orchestre	-11.3083
path	-11.3083
ige	-11.3083
▁lot	-11.3085
étage	-11.309
▁condamnation	-11.3092
urier	-11.3099
▁solde	-11.3101
▁compatriote	-11.3103
espagnol	-11.3105
éclat	-11.3107
▁moulins	-11.3109
▁probabilité	-11.311
▁jam	-11.3111
▁traverser	-11.3111
ann	-11.3112
▁enregistrements	-11.3114
▁1878	-11.3117
▁camille	-11.3117
▁esclaves	-11.3118
▁lewis	-11.3118
-0	-11.3119
▁rub	-11.312
▁isabelle	-11.3122
▁johnny	-11.3126
▁datée	-11.3128
canada	-11.3129
roux	-11.313
bla	-11.3132
▁vedette	-11.3133
▁théo	-11.3133
chu	-11.3134
▁sommets	-11.3143
▁chan	-11.3144
▁recouvert	-11.3144
▁inspirée	-11.3144
pes	-11.3145
bout	-11.3145
écoute	-11.3147
▁provoqué	-11.3148
▁propagande	-11.3152
uli	-11.3152
▁pollution	-11.3153
hydrogène	-11.3154
▁éditeur	-11.3155
▁esthétique	-11.3157
▁majeurs	-11.3157
▁mig	-11.3159
▁brésilien	-11.316
▁demanda	-11.3162
▁bordure	-11.3164
▁maîtresse	-11.3165
▁rayons	-11.3166
aliste	-11.3168
inn	-11.3169
▁rentrée	-11.3173
▁constant	-11.3173
▁munitions	-11.3173
▁ouvrier	-11.3176
▁saga	-11.3178
4.	-11.3179
▁surfaces	-11.3179
plu	-11.3179
▁1948,	-11.3181
alisme	-11.3182
▁profond	-11.3184
▁power	-11.3185
▁hiérarchie	-11.3186
▁médailles	-11.319
▁réplique	-11.319
▁loisirs	-11.3191
▁1918	-11.3194
▁réservée	-11.3199
gm	-11.3201
▁sy	-11.3203
rop	-11.3205
▁bart	-11.3205
▁proposent	-11.3207
▁souterrain	-11.3207
▁rod	-11.3209
astro	-11.321
tir	-11.3213
▁dam	-11.3214
▁poule	-11.3215
▁proprement	-11.3216
▁boucle	-11.3219
▁introduite	-11.3219
▁pure	-11.3219
ép	-11.3221
▁exécuté	-11.3222
▁jay	-11.3222
▁éco	-11.3225
▁tissu	-11.3225
yon	-11.3225
établit	-11.3227
ferrand	-11.3228
▁extérieure	-11.3229
_6	-11.3231
▁primaires	-11.3232
ston	-11.3235
hm	-11.3235
êt	-11.3237
▁offrant	-11.3238
▁poser	-11.3239
▁jar	-11.324
ario	-11.3241
pens	-11.3241
spir	-11.3242
▁nid	-11.3242
èse	-11.3242
tag	-11.3244
▁porto	-11.3245
▁gala	-11.3245
horizon	-11.3246
▁conservés	-11.3246
iya	-11.3247
▁donald	-11.3248
▁caméra	-11.3249
tions	-11.325
▁variation	-11.325
▁certainement	-11.325
▁sophie	-11.3251
▁vicomte	-11.3252
▁160	-11.3255
▁barrière	-11.3255
oxford	-11.3257
icien	-11.3259
▁canaux	-11.3261
▁dol	-11.3261
▁repart	-11.3261
▁1800	-11.3262
▁variantes	-11.3265
▁1937	-11.3266
colo	-11.3267
▁ports	-11.3267
▁1000	-11.3271
▁apparitions	-11.3271
▁révision	-11.3274
oxyde	-11.3274
clam	-11.3276
▁larges	-11.3276
▁maine	-11.3279
▁plafond	-11.328
▁arrêtés	-11.3284
▁conducteur	-11.3284
▁corde	-11.3285
▁prague	-11.3288
installent	-11.3288
▁liaisons	-11.329
▁respecter	-11.3291
▁ferrari	-11.3292
▁system	-11.3292
▁effectuée	-11.3293
▁pékin	-11.3294
agi	-11.3295
▁rd	-11.3296
chel	-11.3298
▁1997.	-11.33
mmer	-11.3301
▁offrir	-11.3301
▁mobilier	-11.3304
abel	-11.3306
▁pension	-11.3306
▁attribuée	-11.3309
▁turcs	-11.3313
▁originaires	-11.3313
▁institution	-11.3313
▁épreuve	-11.3314
▁massive	-11.3319
▁51	-11.3322
▁kor	-11.3322
ffer	-11.3323
thy	-11.3323
lière	-11.3325
▁blanches	-11.3326
▁veulent	-11.3327
▁hot	-11.3328
▁autrement	-11.3328
aigle	-11.3333
▁apparue	-11.3334
argile	-11.3335
▁mineur	-11.3338
cos	-11.3338
archi	-11.3338
▁lourd	-11.3339
▁optique	-11.334
▁géo	-11.3346
tat	-11.3348
▁complot	-11.3348
▁algérie	-11.3349
▁1865	-11.335
tos	-11.3351
▁atlantique	-11.3352
▁vidéos	-11.3354
▁prévention	-11.3356
antenne	-11.3356
leur	-11.3357
rhin	-11.3359
▁idéal	-11.3359
▁bec	-11.3361
géni	-11.3361
▁secrets	-11.3362
▁obligé	-11.3362
▁survécu	-11.3364
▁interdite	-11.3364
▁kam	-11.3365
tres	-11.3367
▁coul	-11.3369
▁coloniale	-11.337
▁flanc	-11.337
sylv	-11.3371
▁symboles	-11.3372
▁portion	-11.3374
pers	-11.3382
▁attend	-11.3383
ât	-11.3383
▁riz	-11.3384
▁ondes	-11.3386
▁som	-11.3387
▁souffle	-11.3388
lem	-11.3388
oyer	-11.3391
alt	-11.3392
▁étendu	-11.3394
6.	-11.3394
gard	-11.3395
▁punk	-11.3396
alger	-11.3397
▁prêté	-11.3398
▁solidarité	-11.3399
resse	-11.34
▁hart	-11.3401
▁1882	-11.3401
▁degrés	-11.3402
▁esprit	-11.3402
▁(11	-11.3404
▁volcan	-11.3404
idi	-11.3404
▁banc	-11.3406
iva	-11.3408
▁molécules	-11.3409
▁sac	-11.3411
▁appliqué	-11.3413
▁crimes	-11.3414
impératrice	-11.3414
▁gab	-11.3415
▁sto	-11.3417
▁jane	-11.3419
▁psychologique	-11.3422
onu	-11.3424
▁intellectuelle	-11.3424
▁spéciales	-11.3424
▁créées	-11.3424
importantes	-11.3425
ark	-11.3425
▁rédige	-11.3427
▁1875	-11.3427
▁renonce	-11.3428
cra	-11.3429
▁1996.	-11.343
▁complément	-11.343
▁réactions	-11.3432
instrument	-11.3433
▁décors	-11.3433
▁composants	-11.3434
▁gendarmerie	-11.3436
arbitre	-11.3436
mala	-11.3436
dge	-11.3437
▁représentés	-11.3438
ndi	-11.344
élément	-11.3441
▁outil	-11.3441
▁bombardement	-11.3444
▁with	-11.3444
lev	-11.3447
▁récentes	-11.3448
▁normalement	-11.3448
▁silence	-11.3452
▁fal	-11.3452
▁spéciaux	-11.3453
▁devenus	-11.3455
▁femelles	-11.3457
▁suffit	-11.3458
▁exceptionnel	-11.3459
▁sortent	-11.3459
▁reproche	-11.3459
accéder	-11.346
▁adulte	-11.346
imm	-11.3461
cd	-11.3464
▁contiennent	-11.3467
aya	-11.3467
▁francophones	-11.3469
▁dragons	-11.347
▁expliquer	-11.347
oph	-11.347
▁avancé	-11.3472
▁démo	-11.3474
but	-11.3475
▁ordinaire	-11.3477
▁nazis	-11.3478
arch	-11.3478
▁1908	-11.3479
▁vichy	-11.348
place	-11.3481
▁didier	-11.3482
éclair	-11.3485
▁»"	-11.3486
ias	-11.3487
▁opus	-11.3488
reux	-11.349
aucun	-11.3491
▁sauvetage	-11.3493
kou	-11.3494
atti	-11.3498
▁chars	-11.3499
▁globe	-11.35
auguste	-11.3501
appelait	-11.3502
▁chantiers	-11.3502
▁survivants	-11.3506
▁alternative	-11.3507
▁alphonse	-11.3507
ichi	-11.3508
omb	-11.351
▁1915	-11.3518
▁espoirs	-11.3518
ensis	-11.352
▁voulant	-11.352
importants	-11.3521
wing	-11.3522
tés	-11.3524
wo	-11.3524
▁chancelier	-11.3525
▁possibilités	-11.3525
▁rendue	-11.3527
▁interprétation	-11.3527
aro	-11.3529
▁entrées	-11.3529
pant	-11.353
-12	-11.353
urie	-11.3533
▁témoins	-11.3533
▁décrire	-11.3534
▁réservoir	-11.3534
▁paroisses	-11.3537
▁berg	-11.3538
▁quarts	-11.3538
▁dominante	-11.3539
▁méri	-11.3542
▁actuels	-11.3544
▁bourgeois	-11.3547
▁1935	-11.3547
▁natal	-11.3547
▁sommes	-11.3547
▁centrales	-11.3548
tell	-11.3548
orge	-11.3549
▁zi	-11.3554
▁1883	-11.3554
▁spi	-11.3554
▁rectangulaire	-11.3558
oire	-11.3559
▁1887	-11.3561
▁mémoires	-11.3562
▁témoignages	-11.3563
▁neutre	-11.3563
▁végétation	-11.3564
éva	-11.3565
acc	-11.3565
▁diesel	-11.3566
▁hugues	-11.3568
▁vatican	-11.357
▁confort	-11.3571
▁étendue	-11.3571
▁1995.	-11.3574
▁maintenu	-11.3575
▁inconnu	-11.3575
▁quitta	-11.3576
▁pel	-11.3578
▁protestants	-11.358
▁étroite	-11.3581
▁vitesses	-11.3581
▁pauvreté	-11.3582
▁délai	-11.3583
▁supérieurs	-11.3583
▁catalogne	-11.3584
rain	-11.3584
▁best	-11.3584
▁châteaux	-11.3588
▁49	-11.3593
ui	-11.3595
chrom	-11.3597
▁nor	-11.3597
▁vos	-11.36
▁syndrome	-11.36
▁correspondent	-11.36
ège	-11.3603
▁sportifs	-11.3605
ms	-11.3605
automobile	-11.3606
▁identifié	-11.3606
▁pratiqué	-11.361
▁1906	-11.3613
▁vic	-11.3615
processeur	-11.3617
mier	-11.3619
▁transit	-11.362
▁restauré	-11.3621
habitude	-11.3621
▁lourde	-11.3622
▁puissent	-11.3626
guet	-11.3627
▁capturé	-11.3628
▁musicaux	-11.3628
▁hamilton	-11.3631
▁habitant	-11.3631
acco	-11.3632
▁mous	-11.3635
▁coll	-11.3636
▁diminue	-11.3637
▁vendue	-11.3638
ime	-11.3641
cum	-11.3642
!"	-11.3644
▁rempli	-11.3645
▁orange	-11.3646
▁roll	-11.3652
▁festivals	-11.3655
▁session	-11.3658
▁morgan	-11.3659
▁pedro	-11.3661
six	-11.3661
objets	-11.3661
▁voyant	-11.3663
ogne	-11.3665
▁révélation	-11.3665
▁érigée	-11.3665
▁listes	-11.3665
uit	-11.3667
marins	-11.3667
▁textile	-11.3667
▁écrivit	-11.3669
explique	-11.3673
élire	-11.3673
▁reprennent	-11.3673
hand	-11.3673
▁réunis	-11.3674
rog	-11.3674
kins	-11.3675
▁séparés	-11.3675
▁jersey	-11.3675
pen	-11.3676
▁puissants	-11.3676
▁anton	-11.3676
aver	-11.368
▁implanté	-11.3681
empêche	-11.3682
alisation	-11.3682
roche	-11.369
▁perception	-11.3692
▁parent	-11.3692
cca	-11.3693
▁turque	-11.3693
▁gratuit	-11.3695
▁tensions	-11.3695
▁1959,	-11.3697
▁planches	-11.3698
▁historiquement	-11.3699
archéologie	-11.3699
sseur	-11.3703
ancêtre	-11.3704
▁évoluer	-11.3705
colonel	-11.3706
▁moyennes	-11.3708
kers	-11.3709
▁philip	-11.3709
til	-11.3709
▁inconnue	-11.3712
alis	-11.3713
▁parcs	-11.3717
évêché	-11.372
céd	-11.3722
rik	-11.3726
▁comparable	-11.3731
iri	-11.3732
▁bénéficier	-11.3733
▁gé	-11.3734
▁peuplée	-11.3734
▁dénonce	-11.3734
▁pauvre	-11.3734
▁vif	-11.3735
▁1916	-11.3737
▁syndicats	-11.3741
logue	-11.3744
▁missiles	-11.3745
▁savant	-11.3745
bio	-11.3748
rag	-11.375
▁comptant	-11.3751
hor	-11.3751
isère	-11.3752
gia	-11.3754
▁proto	-11.3754
ulation	-11.3758
▁proposée	-11.3758
▁1907	-11.3759
▁zoo	-11.3761
и	-11.3766
▁zu	-11.3767
▁financer	-11.3768
▁130	-11.3768
▁1937,	-11.3768
▁1961,	-11.3769
▁parution	-11.377
▁mr	-11.3772
▁song	-11.3773
puis	-11.3773
ifiée	-11.3773
▁dates	-11.3776
▁inf	-11.3776
▁contes	-11.3782
▁1880	-11.3784
gp	-11.3785
échappe	-11.3786
▁muni	-11.3786
shan	-11.3787
▁logis	-11.3788
▁triangle	-11.3788
pprovisionnement	-11.3788
▁remarqué	-11.3791
▁stabilité	-11.3792
ote	-11.3793
▁gras	-11.3794
▁désignée	-11.3794
▁terrible	-11.3796
▁appris	-11.3803
▁connexion	-11.3809
fan	-11.3809
▁galeries	-11.3811
ampleur	-11.3812
logie	-11.3814
▁diagnostic	-11.3815
trans	-11.3815
étendre	-11.3816
vern	-11.382
▁1866	-11.382
bol	-11.3821
bury	-11.3821
▁humide	-11.3821
▁dense	-11.3824
▁rallye	-11.3828
▁ultra	-11.3832
▁dépenses	-11.3832
côte	-11.3833
▁dictionnaire	-11.3834
allier	-11.3836
▁législature	-11.3837
▁réunions	-11.3838
▁rattaché	-11.384
▁allié	-11.3841
essais	-11.3841
ao	-11.3844
augmenter	-11.3844
position	-11.3846
▁spatial	-11.3848
▁culminant	-11.3849
urbanisme	-11.3851
lois	-11.3853
▁sauvages	-11.3856
▁reconstruite	-11.3856
▁souvenirs	-11.3857
▁fût	-11.3857
▁créa	-11.3859
▁dents	-11.3861
▁contrainte	-11.3869
romaine	-11.3869
▁métallique	-11.387
▁cirque	-11.3871
▁levée	-11.3871
▁effectifs	-11.3872
▁fausse	-11.3872
▁caractérisé	-11.3873
▁46	-11.3873
mètre	-11.3876
▁citoyen	-11.3877
kha	-11.3879
alerte	-11.388
itz	-11.3881
▁légitime	-11.3882
▁journées	-11.3882
christ	-11.3885
▁1872	-11.3886
č	-11.3887
▁feuille	-11.3888
▁sphère	-11.3888
▁zo	-11.389
_3	-11.3891
▁accordée	-11.3892
▁timbres	-11.3894
▁night	-11.3894
wick	-11.3897
▁bassiste	-11.3898
asso	-11.3898
comté	-11.3899
▁noires	-11.3899
aris	-11.39
fle	-11.3901
▁tâches	-11.3902
▁jugée	-11.3902
▁1801	-11.3903
▁1868	-11.3903
▁salaire	-11.3904
ingen	-11.3904
▁reg	-11.3905
▁situations	-11.3905
▁déposé	-11.3906
▁continué	-11.3909
awa	-11.3911
pra	-11.3913
▁déterminé	-11.3913
mai	-11.3913
ike	-11.3913
▁courage	-11.3913
▁allé	-11.3914
▁gardé	-11.3915
fol	-11.3915
phy	-11.3916
▁radi	-11.3919
▁47	-11.3919
▁colomb	-11.3924
▁paradis	-11.3925
ssait	-11.3929
▁locomotives	-11.393
▁hell	-11.393
abba	-11.3931
italien	-11.3934
▁indes	-11.3934
magn	-11.3937
▁conc	-11.3939
▁étrange	-11.394
▁remarquables	-11.3943
▁préserver	-11.3944
▁maz	-11.3945
▁nucléaires	-11.3947
▁prochain	-11.3947
▁danois	-11.3947
▁courtes	-11.395
▁puissances	-11.395
▁accompli	-11.395
▁hollywood	-11.3954
▁brève	-11.3956
▁monté	-11.3956
▁ash	-11.3961
▁élisabeth	-11.3963
▁dépose	-11.3963
▁walt	-11.3964
▁xavier	-11.3964
obtention	-11.3964
zz	-11.3965
▁métaux	-11.3965
rina	-11.3966
tern	-11.3969
lion	-11.397
▁transporter	-11.397
arsenal	-11.397
adhésion	-11.3972
▁reprenant	-11.3973
rê	-11.3973
latéral	-11.3974
▁otto	-11.3976
ésie	-11.3978
▁supprimé	-11.398
▁montage	-11.3985
▁sébastien	-11.3986
▁rames	-11.3986
▁disant	-11.3987
▁1919,	-11.3987
▁sarkozy	-11.3989
▁forestière	-11.3992
▁éric	-11.3992
▁indispensable	-11.3993
▁fromage	-11.3993
▁évoluant	-11.3997
ghi	-11.3997
▁not	-11.4001
▁rapproche	-11.4003
tam	-11.4004
▁atteinte	-11.4005
abat	-11.4006
▁châssis	-11.4008
▁carrefour	-11.401
▁mam	-11.401
▁×	-11.4011
▁cuba	-11.4013
▁compréhension	-11.4014
feu	-11.4018
▁chêne	-11.402
mér	-11.402
▁duchesse	-11.4021
tér	-11.4023
▁1992.	-11.4023
stan	-11.4026
▁dessous	-11.4029
▁rib	-11.403
guy	-11.403
▁panneau	-11.4032
▁géographie	-11.4032
▁annoncée	-11.4034
sar	-11.4034
▁sécession	-11.4035
cord	-11.4035
bir	-11.4037
▁endommagé	-11.4039
gni	-11.404
▁équipés	-11.4041
ugh	-11.4045
▁hambourg	-11.4045
а	-11.4047
▁buenos	-11.4047
accompagner	-11.4049
▁tort	-11.4049
▁cadres	-11.4049
▁pénal	-11.405
rise	-11.405
udi	-11.4051
▁recueilli	-11.4053
essence	-11.4053
org	-11.4054
▁marti	-11.4055
ld	-11.4056
▁officielles	-11.4061
matique	-11.4061
▁1993.	-11.4062
▁sonore	-11.4063
▁archevêque	-11.4064
▁press	-11.4065
▁devra	-11.4066
▁proportion	-11.4068
tig	-11.4069
▁datent	-11.4069
▁mass	-11.407
maison	-11.4074
▁tombeau	-11.4077
▁cylindres	-11.4078
▁rétro	-11.4079
eh	-11.4081
▁démontré	-11.4083
▁critiqué	-11.4084
appa	-11.4085
pal	-11.4086
liste	-11.4086
héritage	-11.4088
▁comtes	-11.4095
kine	-11.4096
ick	-11.4099
▁touristes	-11.4101
▁certificat	-11.4103
▁nulle	-11.4103
page	-11.4103
▁produisant	-11.4103
▁intéressant	-11.4105
▁désignation	-11.4106
élie	-11.4106
▁rurale	-11.4107
anime	-11.4108
hara	-11.4111
▁réunir	-11.4113
mans	-11.4114
moi	-11.4116
tta	-11.4117
▁offert	-11.4117
maçon	-11.4118
attache	-11.412
brunswick	-11.412
▁devise	-11.412
▁1994.	-11.4125
▁corn	-11.4127
▁tunis	-11.4131
▁emploie	-11.4134
animaux	-11.4134
▁(7	-11.4136
▁voté	-11.4138
▁libéraux	-11.4139
oran	-11.414
▁louvre	-11.414
▁hameaux	-11.4143
▁dick	-11.4144
▁rapporté	-11.4145
▁emil	-11.4146
apparente	-11.4146
▁partisan	-11.4147
▁dessert	-11.4147
▁wen	-11.4148
▁loup	-11.415
▁mak	-11.4151
tai	-11.4151
psych	-11.4152
nouvelle	-11.4152
▁1954,	-11.4153
▁costa	-11.4157
had	-11.4157
▁jet	-11.4158
5.	-11.416
▁fragments	-11.416
▁contrôlée	-11.416
kon	-11.4161
▁creuse	-11.4161
ys	-11.4162
installa	-11.4162
▁catalan	-11.4163
▁fraction	-11.4164
mc	-11.4165
▁continua	-11.4165
ml	-11.4166
▁madeleine	-11.4166
▁had	-11.417
▁salut	-11.4171
▁book	-11.418
▁écrites	-11.4181
▁dépassé	-11.4183
mine	-11.4185
▁autrichienne	-11.4186
tia	-11.4187
▁parlementaires	-11.419
▁permettra	-11.4193
cept	-11.4193
▁déesse	-11.4194
▁diminution	-11.4194
effondrement	-11.4194
aluminium	-11.4194
▁préféré	-11.4195
▁administrateur	-11.4196
arche	-11.4198
▁1873	-11.42
▁fichiers	-11.4201
▁ensembles	-11.4203
▁0,	-11.4204
▁survie	-11.4206
▁arrêtée	-11.4209
éno	-11.4209
▁croissant	-11.4211
ness	-11.4212
▁caserne	-11.4213
▁présidé	-11.4214
▁mesurer	-11.4215
lli	-11.4218
▁édifice	-11.422
▁inscription	-11.4222
stru	-11.4224
▁recrutement	-11.4224
tex	-11.4225
▁boss	-11.4225
▁lyonnais	-11.4228
stadt	-11.4229
▁pyramide	-11.4235
▁fen	-11.4236
entrepreneur	-11.4239
▁nommer	-11.4239
▁ménage	-11.424
ume	-11.4241
▁1933,	-11.4241
▁trouva	-11.4241
▁wu	-11.4242
bow	-11.4242
▁récupéré	-11.4242
▁plume	-11.4245
▁ennemi	-11.4245
▁frappé	-11.4245
▁poètes	-11.4246
▁aléatoire	-11.4247
may	-11.4248
▁has	-11.4248
▁general	-11.425
▁havre	-11.4251
ulaire	-11.4251
▁commercialisé	-11.4256
▁cycliste	-11.4256
lyn	-11.4257
▁1879	-11.4258
▁nick	-11.4259
▁courrier	-11.4262
▁jr	-11.4263
▁suffisante	-11.4266
▁défunt	-11.4266
▁gour	-11.4266
▁chiens	-11.4269
▁roue	-11.4273
▁coordination	-11.4273
▁rachète	-11.4276
▁1860	-11.4279
▁relatif	-11.4282
▁témoignent	-11.4284
▁célébration	-11.4285
▁influences	-11.4285
▁1848	-11.4288
▁manufacture	-11.4291
▁miss	-11.4293
tons	-11.4295
▁détenu	-11.4296
bc	-11.4297
▁divin	-11.4298
▁dites	-11.43
échantillon	-11.4301
▁partent	-11.4301
ein	-11.4303
▁opposant	-11.4305
▁1949,	-11.4306
▁gravement	-11.4309
▁sévère	-11.4309
film	-11.4311
▁ouvrir	-11.4314
▁august	-11.4314
ota	-11.4317
▁boulogne	-11.4317
▁1950.	-11.4318
▁amoureuse	-11.4319
▁1909	-11.4319
▁clo	-11.432
toi	-11.4321
dite	-11.4325
▁uniforme	-11.4326
▁tiennent	-11.4328
▁parfait	-11.4329
▁tournois	-11.433
explication	-11.4331
▁jouée	-11.4334
ucci	-11.4335
▁valentin	-11.4341
cre	-11.4341
▁dépôts	-11.4342
▁clôture	-11.4343
▁éliminé	-11.4344
pér	-11.4345
▁sportives	-11.4345
▁orienté	-11.4349
▁actuelles	-11.435
attribution	-11.4355
▁pire	-11.4355
▁favorables	-11.4358
▁faillite	-11.4359
animateur	-11.4359
▁vel	-11.436
immigration	-11.436
clar	-11.4363
▁jun	-11.4364
haute	-11.4365
▁coéquipier	-11.4365
▁détachement	-11.4366
▁parlant	-11.4366
oïdes	-11.4367
▁celtique	-11.4367
▁adhère	-11.437
▁sentiments	-11.437
▁miller	-11.4371
▁obtenue	-11.4372
fla	-11.4372
▁divise	-11.4378
▁compromis	-11.4379
▁byzantin	-11.4379
▁1890	-11.438
▁dresse	-11.4384
▁pakistan	-11.4387
▁têtes	-11.4388
▁organes	-11.4392
▁ecclésiastique	-11.4393
rès	-11.4393
bard	-11.4395
▁grégoire	-11.4395
▁wo	-11.4396
▁croissante	-11.4397
▁croisade	-11.4398
▁anciennement	-11.4398
▁buteur	-11.4398
▁1955,	-11.4399
▁manchester	-11.4402
assassin	-11.4402
▁fall	-11.4403
▁brut	-11.4403
▁paramètres	-11.4403
▁présentés	-11.4403
▁créent	-11.4404
lumin	-11.4404
comb	-11.4406
▁confession	-11.4409
▁voisines	-11.4413
▁banques	-11.4413
▁lecteurs	-11.4414
dier	-11.4415
▁1904	-11.4417
▁courante	-11.4418
▁1957,	-11.4418
▁numériques	-11.442
▁rappeur	-11.4422
▁architecte	-11.4423
empare	-11.4428
ouille	-11.4428
gny	-11.4429
faire	-11.4432
▁ferrée	-11.4434
▁$	-11.4434
▁suppose	-11.4434
informatique	-11.4434
▁prestigieux	-11.4435
▁disc	-11.4438
▁humides	-11.4439
obus	-11.4441
ographie	-11.4441
▁mid	-11.4441
orne	-11.4441
▁mystère	-11.4442
eo	-11.4443
▁mah	-11.4443
thal	-11.4443
▁pir	-11.4447
▁mathieu	-11.4448
▁argentin	-11.4452
lande	-11.4453
▁connut	-11.4453
▁animé	-11.4453
ido	-11.4454
ا	-11.4455
▁styles	-11.4455
rg	-11.4455
▁cé	-11.4456
ssaient	-11.4457
▁effectués	-11.4458
▁sydney	-11.4459
...),	-11.446
▁american	-11.4461
▁rivalité	-11.4461
▁zurich	-11.4462
▁dut	-11.4464
▁contrats	-11.4465
oo	-11.4466
tale	-11.4467
▁modéré	-11.4468
▁toiles	-11.4469
▁dépasser	-11.447
rive	-11.447
▁enseignants	-11.4472
▁organisme	-11.4472
▁francesco	-11.4474
américains	-11.4477
▁tha	-11.4479
▁édifices	-11.4481
excellence	-11.4481
▁rosa	-11.4481
▁entertainment	-11.4481
2)	-11.4481
▁baptisée	-11.4483
▁1917	-11.4484
▁1945.	-11.4486
▁artificielle	-11.4487
▁coopérative	-11.4487
bré	-11.4487
château	-11.4488
▁démon	-11.4488
hawk	-11.4488
burn	-11.4488
▁hor	-11.4491
▁occupent	-11.4492
champion	-11.4496
▁caractérisée	-11.4497
ott	-11.4498
▁disputer	-11.4499
▁avantages	-11.45
combe	-11.45
club	-11.45
éti	-11.4502
sia	-11.4503
▁servit	-11.4504
▁brand	-11.4505
dam	-11.4507
▁détention	-11.4507
▁réglementation	-11.4507
▁regroupement	-11.4508
ind	-11.4508
▁plastique	-11.451
stone	-11.4512
▁apparemment	-11.4513
▁considérant	-11.4514
▁roc	-11.4515
▁entendre	-11.4515
▁écho	-11.4516
▁disparaître	-11.4517
▁perdue	-11.4519
▁1869	-11.452
▁prolongement	-11.4521
près	-11.4522
mark	-11.4523
▁sauvegarde	-11.4525
loup	-11.4526
▁nasa	-11.4527
▁expérimentale	-11.4527
▁engagés	-11.4531
▁externe	-11.4532
▁ça	-11.4533
▁pirates	-11.4533
▁54	-11.4535
▁noté	-11.4535
▁croisement	-11.4537
ín	-11.4538
▁spécialisés	-11.4539
▁enseigné	-11.454
cott	-11.454
▁1953,	-11.4542
imo	-11.4542
▁communément	-11.4544
▁déposée	-11.4547
▁diplomatique	-11.4547
▁rein	-11.4549
▁tissus	-11.4551
▁1870	-11.4552
audition	-11.4553
kl	-11.4554
▁fonctionner	-11.4554
ij	-11.4556
dig	-11.4558
▁liban	-11.4559
▁name	-11.4562
▁races	-11.4564
▁brillant	-11.4565
▁interprétée	-11.4565
fen	-11.4565
▁med	-11.4566
▁marqués	-11.4566
coup	-11.4567
▁compositeurs	-11.4567
agh	-11.4573
▁chercheur	-11.4573
ieu	-11.4574
alto	-11.4575
▁mentionnée	-11.4576
▁offensive	-11.458
▁dessiné	-11.458
vul	-11.4581
▁avantage	-11.4584
▁artisans	-11.4584
▁1917,	-11.4586
ajouter	-11.4586
iso	-11.4588
▁institute	-11.4589
▁tutelle	-11.459
▁coton	-11.4591
▁moral	-11.4594
▁diamant	-11.4596
▁battent	-11.4597
▁tam	-11.4598
▁paire	-11.4599
▁approuvé	-11.4603
▁chroniqueur	-11.4606
▁manger	-11.4609
hin	-11.4612
▁sex	-11.4612
scope	-11.4613
▁finance	-11.4614
crim	-11.4614
eut	-11.4618
▁cloche	-11.4619
africain	-11.462
cata	-11.462
▁1935,	-11.4621
▁convient	-11.4621
mic	-11.4622
apa	-11.4622
▁appartiennent	-11.4623
▁souveraineté	-11.4623
▁forcé	-11.4623
▁gère	-11.4623
▁quelqu	-11.4623
▁wolf	-11.4629
▁atteignent	-11.463
▁considérées	-11.463
stat	-11.4631
▁chou	-11.4633
▁wol	-11.4635
ome	-11.4635
500	-11.4638
▁quinzaine	-11.4638
▁rocher	-11.464
▁audio	-11.4641
▁sauvé	-11.4642
▁xii	-11.4643
▁précurseur	-11.4643
▁coureur	-11.4647
board	-11.4648
▁spe	-11.4648
▁kid	-11.465
▁by	-11.465
▁randonnée	-11.4652
▁missile	-11.4653
joy	-11.4653
oiseaux	-11.4655
▁dép	-11.4655
arménie	-11.4656
▁kevin	-11.4656
nnes	-11.4656
lib	-11.4658
▁administratives	-11.4659
allo	-11.4662
▁gaule	-11.4663
▁irlandaise	-11.4664
open	-11.467
▁bey	-11.4671
▁1830	-11.4671
▁1874	-11.4671
invitation	-11.4672
▁fusée	-11.4672
▁modifiée	-11.4674
▁fernand	-11.4677
indique	-11.4679
▁elizabeth	-11.4682
▁rabbin	-11.4682
▁good	-11.4686
▁diminuer	-11.4688
ía	-11.4688
▁demandant	-11.4688
▁chap	-11.4689
▁mohamed	-11.4689
▁1877	-11.4691
erreur	-11.4691
▁axes	-11.4691
▁municipaux	-11.4692
maçonnerie	-11.4692
▁1795	-11.4692
▁fine	-11.4693
illage	-11.4694
▁exposée	-11.4695
▁ze	-11.4696
▁appliquée	-11.4696
▁commentaires	-11.4696
▁apporter	-11.4698
sam	-11.47
▁bruce	-11.47
▁contacts	-11.4702
ifi	-11.4703
imi	-11.4704
▁précoce	-11.4705
atterrissage	-11.4707
▁suisses	-11.4708
éo	-11.4708
▁indiquant	-11.4708
▁rencontra	-11.4712
indu	-11.4712
▁piliers	-11.4713
▁perse	-11.4714
▁cinéaste	-11.472
▁migration	-11.4723
▁sensation	-11.4724
▁voler	-11.4725
▁symptômes	-11.4725
cell	-11.4726
▁bag	-11.4727
erve	-11.4728
▁toiture	-11.4728
▁1952,	-11.473
orn	-11.4731
▁emplacement	-11.4731
▁attitude	-11.4733
atta	-11.4736
▁couverte	-11.4736
▁flo	-11.4739
aussi	-11.474
-14	-11.4741
▁1851	-11.4742
▁juges	-11.4742
ignan	-11.4745
▁bibliothèques	-11.4746
▁protégée	-11.4748
hymne	-11.4748
▁fat	-11.475
▁cad	-11.4755
▁partager	-11.4756
▁rab	-11.4759
▁apostolique	-11.4761
bœuf	-11.4761
▁hypo	-11.4762
▁grandi	-11.4766
▁1991.	-11.4767
▁brou	-11.4768
hésite	-11.4769
▁gaulois	-11.4769
▁collaborateurs	-11.4769
▁limoges	-11.477
interaction	-11.4777
▁prédécesseur	-11.4777
▁spectre	-11.4779
▁francfort	-11.4779
moto	-11.478
▁enregistrée	-11.4785
▁dons	-11.4786
▁fermes	-11.4787
xe	-11.4787
▁conjointement	-11.4788
belle	-11.4788
cée	-11.4791
▁hypothèse	-11.4792
▁romane	-11.4792
▁littéralement	-11.4799
▁carrée	-11.4799
▁1855	-11.4799
cyr	-11.48
▁villeneuve	-11.4801
interprète	-11.4801
▁grange	-11.4801
▁cop	-11.4802
▁séparer	-11.4805
humain	-11.4806
▁résidences	-11.4807
▁démoli	-11.4807
▁atomique	-11.4808
ancier	-11.481
▁doré	-11.4812
▁inscrite	-11.4817
▁gouvernements	-11.4817
▁libérale	-11.4818
▁1903	-11.4818
tien	-11.482
▁discussion	-11.482
▁renouvellement	-11.4824
emme	-11.4825
▁verticale	-11.4825
nicolas	-11.4825
▁cologne	-11.4827
exemplaires	-11.4827
▁trouble	-11.4828
▁ouvertes	-11.4831
éco	-11.4831
▁indiquent	-11.4831
▁carlo	-11.4834
▁éloigné	-11.4835
iche	-11.4835
▁prévision	-11.4838
ascension	-11.4838
jer	-11.4839
anc	-11.4841
attaquer	-11.4842
▁souffre	-11.4842
▁sénégal	-11.4845
▁jimmy	-11.4846
▁dave	-11.4849
▁disciplines	-11.485
▁conclusion	-11.4853
▁donation	-11.4856
vine	-11.486
▁déclara	-11.486
▁géométrie	-11.4862
dix	-11.4862
▁australienne	-11.4863
▁sérieux	-11.4865
▁concepts	-11.4866
▁confrontations	-11.4866
▁effectuées	-11.4867
amo	-11.4868
▁proviennent	-11.4868
▁soulèvement	-11.487
affection	-11.4873
ander	-11.4874
▁adresse	-11.4874
▁séparé	-11.4875
▁mécanismes	-11.4876
▁autorisée	-11.4876
bai	-11.4877
▁copies	-11.4877
take	-11.4878
▁53	-11.4878
▁confirmée	-11.4878
dro	-11.4879
nce	-11.488
▁hit	-11.488
▁kon	-11.4881
clus	-11.4882
▁cavaliers	-11.4886
ory	-11.4888
▁magnifique	-11.4889
écologie	-11.4891
▁élection	-11.4891
étiquette	-11.4893
▁remplacés	-11.4894
▁british	-11.4894
angoulême	-11.4898
_7	-11.4898
▁square	-11.4898
▁imposé	-11.4898
▁mobilité	-11.4898
▁remportée	-11.4898
intelligence	-11.49
cs	-11.49
ajoutent	-11.4901
▁architecture	-11.4901
ī	-11.4902
▁marketing	-11.4902
▁auxquelles	-11.4902
▁complexité	-11.4907
▁nou	-11.4908
pis	-11.491
doctor	-11.4911
▁intermédiaire	-11.4911
▁2020	-11.4911
▁déplacé	-11.4913
asser	-11.4915
▁microsoft	-11.4916
▁produites	-11.4916
▁briques	-11.4917
▁policier	-11.4917
▁mythologie	-11.492
sui	-11.4922
abo	-11.4923
éné	-11.4924
▁connaissent	-11.4924
▁autorise	-11.4927
émergence	-11.4927
▁rachat	-11.4929
iti	-11.4929
▁électroniques	-11.493
▁parfum	-11.4937
train	-11.4937
▁console	-11.4939
▁fossiles	-11.4943
▁water	-11.4943
rah	-11.4946
otan	-11.4946
saison	-11.4948
graphe	-11.4948
monde	-11.495
▁certifié	-11.495
▁navarre	-11.4951
▁prolongation	-11.4952
ders	-11.4953
▁régent	-11.4954
oïde	-11.4956
▁1944.	-11.4957
▁diplomate	-11.4957
bei	-11.4958
▁ancêtres	-11.496
▁fiscale	-11.4961
▁disposant	-11.4961
intégralité	-11.4962
born	-11.4962
lais	-11.4964
▁néerlandaise	-11.4965
▁armand	-11.4967
▁frégate	-11.4968
▁signale	-11.497
het	-11.4971
▁bulgarie	-11.4973
aval	-11.4974
entente	-11.4975
▁envahi	-11.4977
▁cross	-11.498
▁élevées	-11.4982
▁posée	-11.4983
▁payé	-11.4983
▁sk	-11.4983
▁relatives	-11.4984
▁stage	-11.4985
akh	-11.4986
edo	-11.4989
▁1870,	-11.499
▁constructeurs	-11.4991
▁orientales	-11.4993
▁porc	-11.4997
▁cf	-11.4997
▁récompensé	-11.4999
▁alice	-11.4999
▁ordinateur	-11.4999
▁motor	-11.5
▁london	-11.5008
▁blesse	-11.5009
▁aboutit	-11.5011
▁cabine	-11.5011
tribu	-11.5011
▁drogue	-11.5014
▁1859	-11.5015
▁futurs	-11.5015
▁précieux	-11.5016
ué	-11.5017
▁transporté	-11.5018
▁coin	-11.5018
stro	-11.5019
▁symphonique	-11.5021
▁comique	-11.5022
▁sensibilité	-11.5022
▁exacte	-11.5023
escadron	-11.5023
▁exigences	-11.5024
▁kas	-11.5025
▁occidentaux	-11.5026
-7	-11.5026
aco	-11.5026
olé	-11.5027
-13	-11.5027
▁individuel	-11.5028
▁confronté	-11.503
▁réparties	-11.5031
rm	-11.5031
▁médicaments	-11.5031
▁terrasse	-11.5032
ista	-11.5032
yre	-11.5033
▁repli	-11.5036
▁prieur	-11.5037
▁complété	-11.5038
bord	-11.504
lard	-11.5041
▁magie	-11.5041
tc	-11.5041
▁monétaire	-11.5044
▁nouvellement	-11.5049
▁coloré	-11.505
▁ignore	-11.5055
qi	-11.5057
df	-11.5057
▁législatif	-11.5058
▁galaxie	-11.5058
▁voter	-11.5059
▁orné	-11.506
▁animée	-11.506
aucune	-11.506
▁répété	-11.506
▁stars	-11.5061
▁fichier	-11.5061
▁légendaire	-11.5062
▁promesse	-11.5065
▁piège	-11.5065
▁lever	-11.5066
▁nintendo	-11.5067
culaire	-11.5067
▁poussé	-11.5069
intervalle	-11.5069
▁confier	-11.507
aîné	-11.507
omni	-11.5072
▁formés	-11.5073
▁distinctes	-11.5073
▁bir	-11.5074
▁axe	-11.5074
kawa	-11.5075
clo	-11.5075
▁trompe	-11.5079
▁inscriptions	-11.5079
▁filtre	-11.5083
mars	-11.5084
▁palestine	-11.5085
▁cambridge	-11.5085
▁taxe	-11.5086
▁manœuvre	-11.5087
▁facilité	-11.5088
▁mécaniques	-11.5088
fleur	-11.5089
index	-11.509
▁solitaire	-11.509
▁billets	-11.5094
▁compléter	-11.5095
▁america	-11.5095
▁concurrents	-11.5095
arabie	-11.5097
activités	-11.5102
plé	-11.5102
oda	-11.5103
iki	-11.5104
▁parvenir	-11.5104
▁développent	-11.5104
▁systématique	-11.5106
assé	-11.5108
▁mammifères	-11.5109
gua	-11.5111
mini	-11.5112
▁renseignement	-11.5112
bâ	-11.5117
ohio	-11.5117
▁proposant	-11.5121
▁1934,	-11.5121
nière	-11.5122
▁préférence	-11.5123
▁téléfilm	-11.5125
▁menacé	-11.5128
ppe	-11.513
infrastructure	-11.5134
▁condamnés	-11.5136
hiro	-11.5136
escorte	-11.5142
-8	-11.5143
▁faubourg	-11.5144
gos	-11.5144
▁relier	-11.5145
▁ajouter	-11.5145
société	-11.5146
▁nba	-11.5146
▁nationaliste	-11.5147
fond	-11.5147
ction	-11.5147
▁pair	-11.5149
épée	-11.5149
▁loiret	-11.5151
▁instance	-11.5152
▁reliques	-11.5152
▁(...)	-11.5157
script	-11.5158
▁besançon	-11.5162
▁pédagogique	-11.5163
▁servait	-11.5165
phone	-11.5166
▁crois	-11.5167
éch	-11.5168
▁peloton	-11.5169
abside	-11.5169
▁mobiles	-11.517
▁oscar	-11.5171
▁contribuer	-11.5174
▁nez	-11.5174
rô	-11.5176
▁howard	-11.5176
ous	-11.518
▁fantôme	-11.5183
▁développés	-11.5185
▁boris	-11.5186
orum	-11.5187
angu	-11.5193
▁énergie	-11.5194
о	-11.5194
nam	-11.5196
▁mondiaux	-11.5197
intercommunalité	-11.5199
éloge	-11.52
riel	-11.52
communications	-11.5201
▁surmonté	-11.5201
agé	-11.5201
▁censure	-11.5201
ubi	-11.5202
▁bactéries	-11.5204
espérance	-11.5204
▁mineures	-11.5205
▁composent	-11.5205
▁joie	-11.5206
sport	-11.5208
▁accéder	-11.5208
▁congé	-11.5208
▁gri	-11.521
▁crâne	-11.5211
▁renvoyé	-11.5211
▁chroniques	-11.5211
ules	-11.5212
▁vitraux	-11.5214
▁afro	-11.5214
arro	-11.5215
▁déco	-11.5216
illustration	-11.5217
▁emblématique	-11.522
thon	-11.5222
arbres	-11.5223
sif	-11.5223
haï	-11.5224
esclavage	-11.5227
▁gènes	-11.5227
éminent	-11.5227
cut	-11.5228
å	-11.5229
▁céramique	-11.5232
empêcher	-11.5233
naires	-11.5233
▁soie	-11.5234
▁racheté	-11.5234
▁globalement	-11.5235
▁clark	-11.5236
▁conscient	-11.5236
▁douleur	-11.5244
▁trouvaient	-11.5245
▁gt	-11.5246
▁communiqué	-11.5248
▁orale	-11.5249
▁dévoile	-11.5251
rell	-11.5251
quier	-11.5252
▁nocturne	-11.5253
▁alimentaires	-11.5253
▁1854	-11.5254
atteste	-11.5254
▁disposer	-11.5255
▁souhait	-11.5256
illusion	-11.5258
▁hen	-11.5259
zone	-11.5259
pod	-11.5259
gall	-11.526
▁chômage	-11.5262
▁patriarche	-11.5262
▁tubes	-11.5263
erre	-11.5263
fontaine	-11.5264
ingénierie	-11.5265
▁qualifiés	-11.5266
▁bain	-11.5266
▁1902	-11.5266
▁gordon	-11.5267
▁rem	-11.5268
▁observer	-11.5268
▁personnelles	-11.5269
▁concentre	-11.5271
▁mathématicien	-11.5274
▁spin	-11.5275
▁méridionale	-11.5276
▁blason	-11.5277
ovi	-11.5279
▁hydraulique	-11.5279
▁doux	-11.5281
▁sortes	-11.5283
▁discussions	-11.5284
▁east	-11.5285
▁entraînant	-11.5286
▁stanley	-11.5287
▁bonheur	-11.5289
▁affronter	-11.5289
asile	-11.5291
ili	-11.5292
▁organique	-11.5292
iro	-11.5293
▁sage	-11.5294
▁australien	-11.5295
▁beach	-11.5296
▁détruits	-11.5297
▁ix	-11.5298
tone	-11.5299
▁tronc	-11.5303
gol	-11.5303
▁alexis	-11.5306
▁profiter	-11.5306
▁allen	-11.5306
▁contraste	-11.5308
▁bancaire	-11.5308
▁niche	-11.531
▁nova	-11.5313
▁irlande	-11.5316
▁garantie	-11.5319
▁batailles	-11.5321
common	-11.5321
▁fusil	-11.5323
▁attention	-11.5323
▁grenade	-11.5324
émie	-11.5325
▁mess	-11.5326
▁viêt	-11.5327
▁consultation	-11.5328
dorf	-11.5332
▁avons	-11.5332
vey	-11.5334
▁bern	-11.5335
▁emplois	-11.5339
▁140	-11.534
▁noces	-11.5343
▁moments	-11.5344
▁attaquer	-11.5344
▁pacte	-11.5347
100	-11.5348
▁experts	-11.5348
stic	-11.5352
rp	-11.5353
product	-11.5354
kho	-11.5355
▁1812	-11.5355
fou	-11.5356
▁ruine	-11.5356
▁livré	-11.536
▁successives	-11.5361
inventeur	-11.5363
▁traversant	-11.5364
▁détermine	-11.5364
▁opposée	-11.5364
▁socio	-11.5368
éric	-11.5369
lade	-11.5374
hélicoptère	-11.5374
▁districts	-11.5379
▁rappelé	-11.5379
▁combattant	-11.5379
▁cave	-11.5382
▁brillante	-11.5384
▁ryan	-11.5384
apparence	-11.5384
bay	-11.5385
mée	-11.5386
rais	-11.5387
▁1857	-11.539
ison	-11.5391
▁rangers	-11.5392
doc	-11.5392
méth	-11.5392
▁publiquement	-11.5393
▁réalisations	-11.5395
épine	-11.5396
▁inventé	-11.5397
▁renvoie	-11.5398
▁tranche	-11.5398
▁jura	-11.54
▁cinquantaine	-11.5402
plat	-11.5402
▁intervenir	-11.5405
▁his	-11.5406
▁indo	-11.5406
▁visuelle	-11.5406
▁abd	-11.5407
▁apparence	-11.5407
▁1849	-11.541
▁life	-11.5412
▁historien	-11.5412
▁1898	-11.5414
ologiques	-11.5414
▁chants	-11.5415
nistes	-11.5418
▁hérite	-11.5418
alla	-11.5418
▁diable	-11.5421
▁financé	-11.5421
▁(9	-11.5423
info	-11.5423
▁mira	-11.5423
▁quarantaine	-11.5423
opposer	-11.5424
▁temporaire	-11.5426
▁oppose	-11.5427
▁hôpitaux	-11.5427
▁messages	-11.5428
any	-11.5428
illustra	-11.5428
assemblage	-11.5429
▁pap	-11.543
▁gard	-11.543
évaluer	-11.543
▁votes	-11.5432
▁insectes	-11.5434
▁terrestres	-11.5434
▁entrepris	-11.5436
▁médiéval	-11.5436
1)	-11.5438
élo	-11.5438
aven	-11.5439
▁indienne	-11.5439
jusqu	-11.544
tain	-11.544
york	-11.5441
▁norvégien	-11.5442
▁lady	-11.5442
▁apprendre	-11.5442
itu	-11.5442
▁kilomètre	-11.5443
gren	-11.5444
▁technologique	-11.5446
▁timbre	-11.5449
▁répandue	-11.5449
▁incluent	-11.545
▁renoncer	-11.5452
sche	-11.5454
ambition	-11.5454
aim	-11.5456
jen	-11.5457
▁1940.	-11.5458
▁1951,	-11.546
▁carton	-11.5461
▁réuni	-11.5463
▁comptent	-11.5463
▁invite	-11.5465
▁composées	-11.5468
▁restaurée	-11.547
▁pratiquer	-11.5471
▁strictement	-11.5471
abou	-11.5473
▁fins	-11.5473
▁tardive	-11.5474
▁suffrage	-11.5475
▁traction	-11.5475
▁détenus	-11.5481
▁poli	-11.5481
moteur	-11.5482
oi	-11.5483
rc	-11.5483
▁110	-11.5485
▁sacrifice	-11.5486
▁envoyée	-11.5487
▁raoul	-11.5488
infection	-11.5488
▁préparé	-11.5488
endra	-11.5488
▁bonus	-11.5488
▁industrielles	-11.549
▁mena	-11.549
▁pérou	-11.5493
▁mythe	-11.5497
▁vou	-11.5497
rf	-11.5498
▁erreurs	-11.55
affrontent	-11.5501
lore	-11.5501
▁parvenu	-11.5501
▁clef	-11.5502
▁frein	-11.5504
ambassadeur	-11.5505
▁missionnaires	-11.5507
pia	-11.5508
wal	-11.551
artisan	-11.5512
▁spectaculaire	-11.5512
▁controverse	-11.5513
mol	-11.5513
nowiki	-11.5514
quentin	-11.5516
voi	-11.5517
ît	-11.552
gem	-11.5522
appartenance	-11.5522
élever	-11.5522
▁delta	-11.5523
▁abondante	-11.5524
▁indigènes	-11.5536
ical	-11.5536
▁vecteur	-11.5537
▁sinon	-11.5537
intrigue	-11.5537
billboard	-11.554
▁geste	-11.5543
▁habité	-11.5543
cop	-11.5544
▁divine	-11.5544
▁gy	-11.5546
▁peste	-11.5546
▁électoral	-11.5546
kk	-11.5547
▁régiments	-11.5549
uze	-11.555
amar	-11.5555
▁vérifier	-11.5557
▁fabriquer	-11.5558
▁1852	-11.5559
révolutionnaires	-11.5559
oreille	-11.5561
▁déplace	-11.5561
▁visité	-11.5562
nic	-11.5564
▁minorité	-11.5567
aude	-11.5569
▁bière	-11.557
loir	-11.5571
▁identiques	-11.5572
amy	-11.5572
▁julie	-11.5573
▁mentale	-11.5575
▁nécessairement	-11.5576
intendant	-11.5577
cons	-11.5577
▁demandent	-11.5578
▁youtube	-11.558
▁désaccord	-11.558
lique	-11.5581
▁1871	-11.5581
▁suffixe	-11.5582
sive	-11.5584
▁finissent	-11.5586
▁bords	-11.5587
mn	-11.5587
▁pâte	-11.5588
▁1929,	-11.5589
▁orientée	-11.559
▁pay	-11.5591
disciplinaire	-11.5592
▁bretonne	-11.5593
worth	-11.5594
vard	-11.5594
ador	-11.5596
istique	-11.5597
▁700	-11.5598
uta	-11.5599
▁jason	-11.5599
olympique	-11.5601
▁licencié	-11.5602
▁56	-11.5602
▁livrée	-11.5605
▁prestation	-11.5608
▁philosophique	-11.5609
▁procède	-11.5609
llo	-11.561
emparer	-11.561
mg	-11.5612
rig	-11.5613
rière	-11.5613
▁biodiversité	-11.5616
▁acquise	-11.5617
▁couloir	-11.5617
▁acoustique	-11.562
mbo	-11.5621
▁affirmant	-11.5622
amb	-11.5623
▁carter	-11.5623
▁chasseur	-11.5624
▁promet	-11.5626
▁bâle	-11.5627
▁moore	-11.5627
▁responsabilités	-11.5628
▁opérationnel	-11.5628
▁livraison	-11.5628
▁flam	-11.563
▁primitive	-11.5631
▁gall	-11.5634
wen	-11.5635
▁préalable	-11.5635
-11	-11.5637
▁laissent	-11.5637
nèrent	-11.5638
accusation	-11.564
▁contrôlé	-11.564
bry	-11.564
édouard	-11.5641
▁couvrir	-11.5642
zhou	-11.5644
▁routière	-11.5646
▁remontent	-11.5646
oy	-11.5646
▁étudiante	-11.5646
ciel	-11.5647
premier	-11.5647
▁fresques	-11.5647
ž	-11.5648
saône	-11.5648
▁media	-11.5648
▁ravage	-11.5649
▁rad	-11.565
iano	-11.5651
▁charlie	-11.5651
▁cage	-11.5651
oria	-11.5652
atlanta	-11.5653
▁cuirassé	-11.5653
romain	-11.5655
▁fixée	-11.5655
▁alan	-11.5655
▁déplacements	-11.5656
▁assurant	-11.5656
▁accessibles	-11.5657
▁vint	-11.5658
▁transmet	-11.5658
flor	-11.566
sens	-11.5661
▁méga	-11.5661
▁affronte	-11.5665
▁quantités	-11.5666
▁réalisa	-11.5667
▁franche	-11.5667
▁project	-11.5667
rousse	-11.5667
audi	-11.5669
▁élaboré	-11.567
glu	-11.567
▁arrêter	-11.5671
▁ultime	-11.5672
▁inspecteur	-11.5674
▁notation	-11.5674
rad	-11.5675
▁partagent	-11.5677
▁marne	-11.5677
▁repéré	-11.5678
▁particulières	-11.5678
▁maritimes	-11.5679
ery	-11.5679
▁bâtie	-11.568
loy	-11.5681
hebdomadaire	-11.5682
▁stan	-11.5683
nous	-11.5683
▁distribué	-11.5683
▁décharge	-11.5683
▁clés	-11.5683
▁segment	-11.5684
▁1789	-11.5684
▁domestique	-11.5685
sang	-11.5686
▁baies	-11.5687
pala	-11.5689
▁atteignant	-11.5689
▁intercommunale	-11.5691
▁québécoise	-11.5691
▁sacrée	-11.5692
▁opérationnelle	-11.5692
▁mannequin	-11.5692
▁établis	-11.5692
aldo	-11.5693
▁abbé	-11.5693
▁découverts	-11.5694
▁entrent	-11.5694
▁retrouvés	-11.5695
▁gravité	-11.5695
▁della	-11.5695
sto	-11.5697
▁debout	-11.5697
▁relate	-11.5699
avènement	-11.5699
▁auront	-11.57
▁!"	-11.57
plo	-11.5701
▁autochtones	-11.5704
has	-11.5707
▁joua	-11.5708
sard	-11.5709
▁sociologie	-11.5709
▁égypte	-11.572
▁prétendant	-11.5721
▁1900,	-11.5724
▁arrivant	-11.5725
▁java	-11.5728
▁revers	-11.5728
▁vignes	-11.5728
▁contenir	-11.5729
ût	-11.5729
▁1856	-11.573
▁synonyme	-11.5731
ifiant	-11.5732
chot	-11.5732
jar	-11.5735
▁cellulaire	-11.5736
vois	-11.5737
▁pseudo	-11.5737
с	-11.5739
évacuation	-11.5739
gur	-11.574
▁grim	-11.574
▁résolu	-11.5741
adam	-11.5741
▁répandu	-11.5741
▁renseignements	-11.5742
hey	-11.5743
▁mitterrand	-11.5748
▁("")	-11.5749
▁rejette	-11.5749
▁1846	-11.575
▁anthony	-11.5751
▁possessions	-11.5753
▁vendée	-11.5753
▁partagée	-11.5754
▁file	-11.5756
▁hollandais	-11.5757
ordonnance	-11.5758
▁wall	-11.5759
▁dégradation	-11.5761
▁camarades	-11.5761
▁arriva	-11.5761
game	-11.5763
▁cessé	-11.5763
mot	-11.5765
▁passes	-11.5766
▁1989.	-11.577
▁tabac	-11.5771
▁remporta	-11.5772
rk	-11.5772
▁académique	-11.5773
ș	-11.5778
▁tempéré	-11.5778
▁rendus	-11.578
▁constamment	-11.5781
quel	-11.5781
▁négative	-11.5782
▁biologie	-11.5783
▁fabriqué	-11.5783
▁vastes	-11.5785
▁vivants	-11.5786
▁die	-11.5786
▁chanteurs	-11.5787
child	-11.5788
tard	-11.5789
ø	-11.5789
indonésie	-11.5791
▁cameroun	-11.5792
▁lombard	-11.5795
▁offrent	-11.5796
▁jonction	-11.5796
▁visiter	-11.5796
▁miles	-11.5796
▁immédiate	-11.5797
moy	-11.5797
rec	-11.5797
▁océanique	-11.5798
alé	-11.5798
lieutenant	-11.5799
▁municipalités	-11.58
▁3.	-11.5802
▁votre	-11.5804
retour	-11.5805
▁malte	-11.5807
▁wild	-11.5809
▁diffuser	-11.5811
▁1896	-11.5813
▁exemplaire	-11.5815
humidité	-11.5815
▁protège	-11.5815
naient	-11.5817
▁bébé	-11.5818
▁réparation	-11.5818
▁définitif	-11.5819
▁desserte	-11.582
▁supposé	-11.5821
utilisa	-11.5822
▁implantée	-11.5822
▁fonctionnaire	-11.5824
▁progressive	-11.5825
▁méditerranéen	-11.5825
▁from	-11.5826
▁combiné	-11.5827
▁empêche	-11.5827
étudier	-11.5834
▁compl	-11.5836
▁boutique	-11.5839
▁joan	-11.584
▁essaie	-11.584
▁toucher	-11.584
▁pomme	-11.5841
fil	-11.5842
▁haye	-11.5843
▁1988.	-11.5843
▁variés	-11.5845
▁acides	-11.5847
culture	-11.5849
uefa	-11.585
▁finaliste	-11.5851
▁intime	-11.5853
alexandrie	-11.586
iu	-11.5861
chard	-11.5861
ambiance	-11.5864
▁concernent	-11.5864
pus	-11.5865
▁fallait	-11.5866
▁1932,	-11.5866
▁communale	-11.5867
livre	-11.5868
▁projection	-11.5871
▁initié	-11.5871
abu	-11.5871
▁documentation	-11.5873
▁récurrent	-11.5873
▁gallois	-11.5876
▁résister	-11.5879
▁allusion	-11.5879
▁candidate	-11.5882
▁state	-11.5883
▁dénommée	-11.5883
ogène	-11.5885
▁doyen	-11.5886
▁mun	-11.5887
▁temporairement	-11.5891
trin	-11.5891
▁défait	-11.5893
▁climatique	-11.5894
▁costume	-11.5895
▁sky	-11.5896
athlète	-11.5897
▁télévisé	-11.5898
▁violent	-11.5898
organ	-11.5899
sat	-11.5902
▁remix	-11.5904
▁émet	-11.5905
honor	-11.5906
▁1850	-11.5906
prince	-11.5909
8.	-11.5911
▁lincoln	-11.5913
otto	-11.5913
▁élémentaire	-11.5914
▁défenseurs	-11.5916
trop	-11.5919
▁occitan	-11.592
▁légal	-11.5921
▁transmis	-11.5921
▁prouver	-11.5921
statique	-11.5922
escalier	-11.5923
▁pluies	-11.5924
▁déclenche	-11.5924
▁attendant	-11.5925
▁jonathan	-11.5925
▁transept	-11.5925
fly	-11.5929
▁examen	-11.5929
▁dominé	-11.593
▁terminus	-11.593
attaquant	-11.5932
finales	-11.5933
▁réalisant	-11.5934
▁lentement	-11.5934
▁restait	-11.5935
▁mystique	-11.5936
▁réédité	-11.5938
▁cheminée	-11.5939
bli	-11.5939
▁gene	-11.594
écho	-11.5941
▁alternatif	-11.5943
▁provoquant	-11.5943
▁sound	-11.5944
code	-11.5944
ukrainien	-11.5944
internet	-11.5944
▁1910,	-11.5945
watt	-11.5946
human	-11.5948
ements	-11.5948
▁immobilier	-11.5949
▁libye	-11.5951
▁rapprocher	-11.5952
armistice	-11.5955
▁successifs	-11.5958
▁théodore	-11.5958
matri	-11.5959
▁analyses	-11.5959
▁ouvrière	-11.5959
▁recommandé	-11.596
▁bombardements	-11.596
▁lisbonne	-11.5963
▁1899	-11.5964
▁2"	-11.5964
illet	-11.5964
|	-11.5965
▁directive	-11.5966
▁ring	-11.5967
under	-11.5967
ivité	-11.5968
▁1897	-11.5969
▁rain	-11.597
▁1889	-11.597
rico	-11.5972
▁écran	-11.5973
physi	-11.5975
▁distances	-11.598
▁affecte	-11.5981
▁décisive	-11.5982
▁enseignant	-11.5987
chev	-11.5989
▁1925,	-11.5992
▁percée	-11.5992
eta	-11.5992
▁plongée	-11.5993
▁nationalistes	-11.5994
▁esprits	-11.5994
appuyant	-11.5996
▁aménagé	-11.5999
▁jeff	-11.6001
▁protecteur	-11.6001
▁conserva	-11.6001
lob	-11.6002
issait	-11.6003
▁modernisation	-11.6003
hol	-11.6005
offici	-11.6006
yō	-11.6009
▁bénéfice	-11.6012
inus	-11.6015
▁réaliste	-11.6017
▁bouddhisme	-11.6018
▁individuelles	-11.6019
▁piscine	-11.6021
▁extraits	-11.6022
ouche	-11.6023
▁téléspectateurs	-11.6023
▁exposés	-11.6023
jos	-11.6024
sten	-11.6024
▁revendique	-11.6025
▁fonda	-11.6026
onnais	-11.6028
▁quelconque	-11.6029
▁parking	-11.6031
▁évoqué	-11.6034
▁médiatique	-11.6034
pres	-11.6035
▁résidents	-11.6035
verg	-11.6036
œuf	-11.6037
gna	-11.6037
▁1858	-11.604
frei	-11.604
▁auvergne	-11.604
bird	-11.6041
▁justin	-11.6042
▁éditeurs	-11.6042
▁enregistrer	-11.6042
aly	-11.6043
▁chirac	-11.6046
▁résistant	-11.6046
▁gravure	-11.6049
héroïne	-11.6049
entend	-11.6052
▁succédé	-11.6054
▁arrondissement	-11.6057
isi	-11.6057
auvergne	-11.6058
▁africaine	-11.6059
▁tenta	-11.606
gier	-11.6062
idéologie	-11.6063
▁affluents	-11.6063
▁marocain	-11.6065
▁atmosphérique	-11.6067
▁rejeté	-11.6069
▁ajoutant	-11.6071
▁intervention	-11.6071
▁diminué	-11.6074
illustre	-11.6078
▁rappeler	-11.6078
▁castille	-11.6079
▁parlent	-11.6081
▁fondations	-11.6082
▁pratiquant	-11.6082
▁chirurgien	-11.6083
sburg	-11.6084
siège	-11.6084
accorder	-11.6084
emmène	-11.6084
itinéraire	-11.6085
▁digne	-11.6085
observateur	-11.6085
rach	-11.6086
▁gérée	-11.6088
▁parlé	-11.6088
▁suédoise	-11.609
▁foncé	-11.6091
▁pleinement	-11.6091
▁traitements	-11.6091
▁assis	-11.6093
▁impose	-11.6093
rom	-11.6094
inscrire	-11.6095
usa	-11.6095
▁immeubles	-11.6096
▁ouverts	-11.6097
ards	-11.61
ł	-11.6103
▁promenade	-11.6105
▁wallon	-11.6105
▁conservateurs	-11.6105
▁autrichien	-11.6106
▁university	-11.6107
▁christopher	-11.6108
enfer	-11.6109
▁abus	-11.6112
▁couvrant	-11.6112
▁insiste	-11.6114
▁volcanique	-11.6116
dot	-11.6116
ango	-11.6116
▁ven	-11.6117
▁chanté	-11.6118
ović	-11.6119
aqua	-11.6122
▁aveugle	-11.6122
▁nobel	-11.6123
abe	-11.6123
épouser	-11.6125
▁donjon	-11.6125
▁haine	-11.6126
▁affiche	-11.6127
morphisme	-11.6128
▁tag	-11.613
vita	-11.6131
poli	-11.6131
▁signaux	-11.6134
▁affirmé	-11.6136
calédonie	-11.6136
▁exprime	-11.6138
ues	-11.6139
addition	-11.614
▁pratiquée	-11.614
▁tau	-11.6141
idés	-11.6141
▁tombes	-11.6141
▁gravures	-11.6141
▁nelson	-11.6142
»,	-11.6144
affrontement	-11.6146
▁folie	-11.6146
▁billy	-11.6148
tina	-11.6149
mod	-11.6149
▁mortalité	-11.6152
▁home	-11.6153
▁qualifications	-11.6155
▁accepter	-11.6155
▁brique	-11.6158
ı	-11.6159
▁(8	-11.6161
mour	-11.6161
▁obtiennent	-11.6163
uba	-11.6163
▁dérivés	-11.6164
▁95	-11.6164
aliment	-11.6164
▁bowl	-11.6165
▁1810	-11.6165
▁résume	-11.6165
▁nœuds	-11.6167
▁déclarant	-11.6169
▁qualifiée	-11.617
▁posthume	-11.6172
▁réputée	-11.6173
▁conversation	-11.6173
▁croiseur	-11.6174
▁miami	-11.6175
▁chirurgie	-11.6177
▁périmètre	-11.6177
opa	-11.6178
▁charme	-11.6178
▁planification	-11.6179
▁trous	-11.6179
▁existant	-11.6181
▁résultant	-11.6181
chia	-11.6184
gn	-11.6186
▁1831	-11.6189
▁raf	-11.6191
épaule	-11.6192
thérapie	-11.6192
▁rapprochement	-11.6193
ligne	-11.6193
▁franchir	-11.6194
▁surmontée	-11.6194
▁tendre	-11.6197
▁prestations	-11.6198
7.	-11.6198
aq	-11.6199
ela	-11.6199
▁franck	-11.6203
verne	-11.6203
▁lyrique	-11.6203
▁fréquenté	-11.6205
▁berne	-11.6206
▁confrérie	-11.6208
▁comparé	-11.6208
yves	-11.621
▁philippines	-11.6211
▁sorties	-11.6212
ensuit	-11.6213
écou	-11.6213
oblige	-11.6213
▁tragédie	-11.6213
▁pattes	-11.6215
temp	-11.6216
▁prestigieuse	-11.6218
▁loc	-11.6219
▁abandonner	-11.6221
▁composant	-11.6221
▁forge	-11.6222
tp	-11.6223
laire	-11.6223
▁consultant	-11.6224
▁marches	-11.6226
▁desservi	-11.6229
▁renard	-11.6232
▁poul	-11.6232
iat	-11.6234
▁grès	-11.6238
ifie	-11.6239
▁renaud	-11.624
▁spécifiquement	-11.6241
▁associées	-11.6242
villiers	-11.6242
maurice	-11.6242
atlas	-11.6243
▁1806	-11.6243
▁1928,	-11.6243
imprimerie	-11.6245
▁léo	-11.6245
▁purement	-11.6245
enfuit	-11.6247
▁lambert	-11.6247
▁sin	-11.6247
hyper	-11.6248
▁cercles	-11.6249
▁polytechnique	-11.6249
▁registres	-11.6252
▁chu	-11.6252
jon	-11.6253
jac	-11.6257
▁reconnus	-11.6257
▁faiblesse	-11.6258
▁nazie	-11.6258
horreur	-11.626
ibi	-11.6261
flex	-11.6263
▁fragile	-11.6265
azerbaïdjan	-11.6265
▁raw	-11.6266
lag	-11.6267
▁kin	-11.6267
thi	-11.627
étale	-11.627
▁soumise	-11.627
▁mathématique	-11.6272
▁récupère	-11.6273
chal	-11.6273
▁modifie	-11.6273
▁menés	-11.6273
struct	-11.6274
▁macro	-11.6275
▁1793	-11.6275
franc	-11.6276
enfuir	-11.6277
▁réguliers	-11.6277
-9	-11.6278
▁leipzig	-11.6278
▁innocent	-11.6278
gus	-11.628
▁bassins	-11.628
▁1820	-11.628
argo	-11.6281
▁anderson	-11.6282
▁57	-11.6282
▁terminent	-11.6285
fm	-11.6285
▁tactique	-11.6285
▁perdant	-11.6286
▁sorbonne	-11.6288
▁brune	-11.629
▁giuseppe	-11.6291
fp	-11.6291
jum	-11.6291
cine	-11.6291
▁who	-11.6291
▁kurt	-11.6292
▁croate	-11.6292
▁commandeur	-11.6293
iac	-11.6293
▁chauve	-11.6294
▁chapitres	-11.6296
▁portugaise	-11.6297
peut	-11.6298
envergure	-11.6301
cade	-11.6302
eth	-11.6304
▁céder	-11.6305
arbor	-11.6305
▁platine	-11.6305
gale	-11.6307
▁handicap	-11.6307
mil	-11.6308
▁absent	-11.6309
▁guise	-11.6312
▁kw	-11.6312
fried	-11.6312
▁entrant	-11.6314
▁climatiques	-11.6315
ades	-11.6316
▁délégués	-11.6317
▁composer	-11.6318
▁time	-11.6318
boot	-11.6318
▁forest	-11.6319
▁séparée	-11.6321
▁alpin	-11.6322
▁compagne	-11.6322
abolition	-11.6323
▁africain	-11.6323
▁buste	-11.6323
hydro	-11.6325
iza	-11.6327
▁vicaire	-11.6327
▁déterminée	-11.6327
hes	-11.6327
▁1895	-11.6328
▁téléphonique	-11.633
villers	-11.633
▁1845	-11.6331
ör	-11.6333
▁hôpital	-11.6334
▁grains	-11.6334
▁embarqué	-11.6335
▁stand	-11.6336
▁progressiste	-11.6338
gique	-11.6338
▁quais	-11.6338
▁codes	-11.6339
▁convainc	-11.6339
▁restaurants	-11.634
▁librement	-11.634
cola	-11.6341
▁1790	-11.6342
▁céleste	-11.6343
▁revint	-11.6343
▁enfermé	-11.6344
▁1926,	-11.6344
▁parrain	-11.6344
▁classées	-11.6345
maritime	-11.6345
▁démontrer	-11.6349
▁pensent	-11.635
▁visites	-11.6352
kis	-11.6353
esp	-11.6353
▁recrute	-11.6355
raie	-11.6356
▁déficit	-11.6357
▁68	-11.6359
entreprises	-11.636
zia	-11.636
ignant	-11.636
mme	-11.6363
▁serveur	-11.6363
▁torture	-11.6363
▁58	-11.6364
ortho	-11.6364
ando	-11.6366
▁reproduit	-11.6371
jin	-11.6372
▁ornée	-11.6373
▁maturité	-11.6374
▁encourage	-11.6375
fé	-11.6377
illac	-11.6377
▁magazines	-11.6377
emmanuel	-11.6378
▁jeudi	-11.6379
▁laboratoires	-11.6381
▁exercer	-11.6384
▁scolarité	-11.6385
▁librairie	-11.6388
▁suscite	-11.6389
élévation	-11.639
▁charité	-11.639
▁85	-11.6391
▁organiser	-11.6398
▁miracle	-11.6398
▁plaines	-11.6399
kes	-11.64
▁rc	-11.64
▁armés	-11.6401
vu	-11.6403
lux	-11.6406
▁disposait	-11.6406
▁câble	-11.6407
▁1930.	-11.6413
afghanistan	-11.6414
▁comportent	-11.6415
▁censé	-11.6415
▁célébrer	-11.6416
active	-11.6417
ân	-11.6419
▁ép	-11.6421
▁citadelle	-11.6422
▁légendes	-11.6424
▁prés	-11.6424
▁beat	-11.6427
oubli	-11.6428
▁fabricant	-11.6428
lf	-11.6429
▁gun	-11.643
▁casse	-11.643
regi	-11.6431
▁résident	-11.6431
▁rebonds	-11.6432
▁prestige	-11.6432
cm	-11.6433
ere	-11.6433
oko	-11.6437
exploiter	-11.6439
ouvrent	-11.6439
▁edmond	-11.6441
▁casque	-11.6441
▁refusa	-11.6442
▁bun	-11.6443
▁vainqueurs	-11.6444
por	-11.6446
▁petr	-11.6446
▁incluse	-11.6446
aque	-11.6447
pat	-11.6447
▁rappel	-11.6449
acadie	-11.645
▁trouvés	-11.645
cours	-11.6451
▁livret	-11.6452
oum	-11.6453
expertise	-11.6454
directeur	-11.6455
▁tellement	-11.6456
kō	-11.6457
▁bess	-11.6459
mène	-11.646
▁cérémonies	-11.646
▁dublin	-11.6461
▁remparts	-11.6463
▁abouti	-11.6463
envoyer	-11.6464
▁corr	-11.6465
céphal	-11.6465
▁déclarée	-11.6466
▁millénaire	-11.6467
▁révéler	-11.6467
▁kol	-11.6467
▁mobilisé	-11.6468
▁batteries	-11.6469
fel	-11.6471
▁fréquentation	-11.6472
alain	-11.6472
▁kelly	-11.6473
▁défilé	-11.6475
▁marines	-11.6475
▁causé	-11.6476
▁125	-11.6476
▁minerai	-11.6476
▁palmarès	-11.6477
▁your	-11.6477
▁intellectuels	-11.6479
▁1893	-11.6482
▁individuelle	-11.6482
injection	-11.6483
▁transmettre	-11.6489
ñ	-11.6489
▁entités	-11.6491
assistant	-11.6494
essor	-11.6494
▁1931,	-11.6494
▁repère	-11.6494
auxerre	-11.6495
▁1986.	-11.6497
illinois	-11.6502
▁béni	-11.6502
▁dark	-11.6503
▁fusionné	-11.6504
▁nazi	-11.6505
▁fondamentale	-11.6505
▁permanence	-11.6507
▁découpage	-11.6509
▁céréales	-11.6509
▁encouragé	-11.6515
▁tint	-11.6515
mü	-11.6518
▁sergent	-11.6519
▁excellent	-11.6519
archives	-11.6519
logique	-11.652
▁gon	-11.652
▁72	-11.6521
▁massachusetts	-11.6522
▁kennedy	-11.6523
▁résistants	-11.6523
▁fré	-11.6524
▁1912,	-11.6524
▁yougoslavie	-11.6525
fér	-11.6525
▁maintenance	-11.6525
▁case	-11.6526
▁arn	-11.6527
jur	-11.6529
èche	-11.653
▁mour	-11.6531
▁titan	-11.6531
▁cris	-11.6532
otti	-11.6533
▁décorée	-11.6536
▁abrégé	-11.6537
▁wwe	-11.6537
lées	-11.6538
▁détection	-11.6539
mia	-11.6539
polis	-11.6539
▁annoncent	-11.6541
sim	-11.6542
▁gênes	-11.6543
▁renforce	-11.6544
pop	-11.6546
cession	-11.6546
▁trajectoire	-11.6547
aye	-11.6547
▁carrés	-11.6547
▁urbains	-11.6548
▁sentier	-11.6548
▁1847	-11.6551
▁provincial	-11.6551
igno	-11.6552
▁ordonnance	-11.6556
tière	-11.6556
▁usa	-11.6556
expérimentation	-11.6559
▁folk	-11.6559
▁transférée	-11.656
hur	-11.656
▁renforcé	-11.656
▁ky	-11.6563
▁découvrent	-11.6564
amine	-11.6564
▁dose	-11.6565
▁essence	-11.6565
chée	-11.6566
▁parisiens	-11.6566
polit	-11.6567
boy	-11.6568
▁baptême	-11.6571
▁attestée	-11.6571
éteint	-11.6572
▁hard	-11.6572
▁métalliques	-11.6574
▁solides	-11.6576
▁posséder	-11.6576
▁1924,	-11.6579
▁yoshi	-11.6579
gine	-11.6579
ár	-11.6581
▁significatif	-11.6581
tory	-11.6583
▁1813	-11.6583
▁byzantine	-11.6587
▁eli	-11.6587
▁1809	-11.659
première	-11.6591
hua	-11.6595
▁one	-11.6596
▁flash	-11.6598
▁expression	-11.6598
▁dissoute	-11.66
kirch	-11.6601
}	-11.6601
▁grosses	-11.6601
ride	-11.6602
▁ravitaillement	-11.6605
entourage	-11.6606
▁intégrer	-11.6608
▁golden	-11.6609
pion	-11.661
▁commerces	-11.661
revue	-11.6611
▁quantique	-11.6611
▁échapper	-11.6611
ishi	-11.6613
▁vieil	-11.6616
annexion	-11.6616
▁1837	-11.6618
▁domestiques	-11.6618
▁récent	-11.6618
▁ramener	-11.6621
▁cultivé	-11.6622
▁valu	-11.6623
▁termina	-11.6624
band	-11.6626
▁hass	-11.6627
▁minimale	-11.6628
assises	-11.6628
odo	-11.6631
▁qix	-11.6631
▁prendra	-11.6632
▁plonge	-11.6633
▁1881	-11.6635
uro	-11.6635
▁proclame	-11.6635
▁run	-11.664
iba	-11.6642
▁philipp	-11.6643
▁donnait	-11.6644
shaw	-11.6644
▁annuellement	-11.6647
▁séparées	-11.6647
rap	-11.6647
espion	-11.6647
▁favoris	-11.6648
▁régulation	-11.6649
▁théâtrale	-11.6652
▁pause	-11.6656
▁navigateur	-11.6657
▁codice	-11.6657
▁dames	-11.6658
owski	-11.6658
opportunité	-11.666
▁écarté	-11.666
▁light	-11.6663
▁disputée	-11.6664
▁conservées	-11.6668
emb	-11.667
▁désignant	-11.667
▁languedoc	-11.6671
▁dru	-11.6673
▁criminelle	-11.6677
▁bot	-11.6678
▁originaux	-11.6678
▁louvain	-11.6679
▁substance	-11.6679
▁appartement	-11.668
wy	-11.668
pack	-11.668
▁yo	-11.6681
▁commando	-11.6681
_8	-11.6682
come	-11.6682
bad	-11.6682
▁vivait	-11.6684
▁évidemment	-11.6686
▁columbia	-11.6686
▁suites	-11.6688
iris	-11.6688
uda	-11.6688
inspection	-11.6689
utili	-11.669
sable	-11.6691
▁pourcentage	-11.6692
▁sénateurs	-11.6695
dai	-11.6695
▁angles	-11.6699
▁1894	-11.6701
évent	-11.6702
▁golf	-11.6703
▁prévenir	-11.6703
chou	-11.6703
▁intention	-11.6703
▁rame	-11.6703
▁recherché	-11.6704
▁intéressé	-11.6704
▁secrétariat	-11.6705
champs	-11.6707
▁souffrance	-11.6711
▁dissous	-11.6712
▁usages	-11.6712
affirmation	-11.6712
▁lucas	-11.6714
▁récents	-11.6714
▁1921,	-11.6715
victoire	-11.6716
pent	-11.6717
exister	-11.6718
▁antiques	-11.6719
▁berry	-11.672
▁exploite	-11.6721
oto	-11.6723
odeur	-11.6725
▁rick	-11.6728
▁consécutive	-11.6728
▁juridiques	-11.6729
▁rail	-11.6733
adolescent	-11.6735
athlétisme	-11.6735
▁moselle	-11.6736
dict	-11.6738
▁provinciale	-11.6738
μ	-11.6741
▁développant	-11.6741
▁ramené	-11.6741
▁fortifiée	-11.6741
▁africains	-11.6741
gée	-11.6745
▁pet	-11.6746
olivier	-11.6746
▁aborde	-11.6748
▁pétition	-11.6749
▁fiable	-11.675
▁recouverte	-11.675
▁intermédiaires	-11.6751
▁autriche	-11.6752
{	-11.6755
quée	-11.6758
▁mineure	-11.6758
accompagne	-11.6761
modern	-11.6762
▁hauteurs	-11.6763
▁1792	-11.6764
▁contributions	-11.6764
▁tribunaux	-11.6766
▁opérateurs	-11.6767
▁mcc	-11.6768
oncle	-11.6771
▁patrie	-11.6772
accompagnement	-11.6773
▁habitations	-11.6775
▁réfère	-11.6775
▁prolongée	-11.6777
▁détriment	-11.6779
▁honoré	-11.678
▁généré	-11.678
▁dream	-11.6782
▁1808	-11.6782
▁aéronautique	-11.6782
▁bush	-11.6783
▁xx	-11.6785
▁effectif	-11.6786
aca	-11.6787
▁créatures	-11.6787
assembl	-11.6788
▁dépendance	-11.6789
▁google	-11.679
bomb	-11.679
ifère	-11.6792
▁fasse	-11.6793
▁nîmes	-11.6793
▁religions	-11.6793
▁latérales	-11.6793
lama	-11.6796
▁façades	-11.6796
▁‘	-11.6796
miss	-11.6798
▁pier	-11.68
allée	-11.6804
▁hormis	-11.6804
▁matériels	-11.6804
▁navette	-11.6804
abc	-11.6806
isait	-11.6806
▁croisée	-11.6807
adjoint	-11.6807
▁venger	-11.6808
▁informé	-11.6809
asp	-11.681
▁brûlé	-11.6811
tiers	-11.6811
aime	-11.6812
sainte	-11.6816
wei	-11.6817
▁obtenant	-11.6817
▁tragique	-11.6818
▁promoteur	-11.6819
▁cout	-11.682
▁forfait	-11.682
▁libertés	-11.6821
▁rumeurs	-11.6821
maj	-11.6822
olympia	-11.6824
▁favorise	-11.6826
▁volé	-11.6826
▁travailliste	-11.6828
▁marvel	-11.683
nine	-11.6832
▁bétail	-11.6833
▁législative	-11.6834
▁1853	-11.6834
▁proposés	-11.6838
▁éducation	-11.6839
bac	-11.684
arthur	-11.6841
▁chaine	-11.6841
bank	-11.6841
alternance	-11.6842
▁teint	-11.6843
▁‰	-11.6843
gla	-11.6845
▁math	-11.6846
▁chapeau	-11.6847
pyr	-11.6847
▁1835	-11.6849
▁1832	-11.6849
▁succéder	-11.685
attitude	-11.6852
▁1927,	-11.6853
chat	-11.6853
enveloppe	-11.6853
▁flûte	-11.6853
vogue	-11.6854
▁influe	-11.6854
▁logistique	-11.6857
▁ball	-11.6857
▁fleuri	-11.6858
▁légers	-11.6858
▁lionel	-11.6859
raud	-11.686
▁mosaïque	-11.6861
▁attentats	-11.6862
▁clos	-11.6862
▁barbara	-11.6863
you	-11.6863
▁habituel	-11.6863
▁annexe	-11.6864
▁citée	-11.6866
baud	-11.6866
▁renforcée	-11.6866
wr	-11.6867
▁|	-11.6868
abandonner	-11.6869
▁susceptibles	-11.6869
▁landes	-11.6869
affi	-11.687
hôte	-11.6871
▁inondations	-11.6871
▁royaumes	-11.6873
div	-11.6874
articles	-11.6875
▁cloître	-11.6875
med	-11.6875
obs	-11.6875
▁entité	-11.6876
alma	-11.6879
ashi	-11.6881
▁perçu	-11.6882
bonne	-11.6884
▁réels	-11.6885
mt	-11.6886
extinction	-11.6886
▁rétablir	-11.6887
hot	-11.6888
▁hubert	-11.6889
▁garantir	-11.689
▁tapis	-11.6891
▁gru	-11.6892
connect	-11.6895
▁bourgeoisie	-11.69
▁stockholm	-11.69
▁convoqué	-11.6906
▁heinrich	-11.6906
▁liturgique	-11.6906
▁turbo	-11.6906
▁buff	-11.6906
▁fragment	-11.6907
▁jambes	-11.6907
▁1915,	-11.691
agression	-11.6911
▁off	-11.6912
▁ful	-11.6913
▁statuts	-11.6913
rea	-11.6914
▁relevé	-11.6914
eli	-11.6922
images	-11.6922
ρ	-11.6925
▁fiscalité	-11.6926
▁houston	-11.6928
amène	-11.6929
▁fameuse	-11.6933
▁margaret	-11.6933
▁sus	-11.6936
▁baz	-11.6939
▁suffisant	-11.6939
▁isolé	-11.694
▁down	-11.694
▁magique	-11.694
▁tirant	-11.6943
▁moléculaire	-11.6943
master	-11.6944
▁1922,	-11.6945
▁blu	-11.6945
▁considération	-11.6948
▁automobiles	-11.6948
play	-11.695
▁enregistrés	-11.6952
amas	-11.6952
▁démontre	-11.6953
▁longe	-11.6953
▁1863	-11.6955
appellent	-11.6955
▁christine	-11.6956
neu	-11.6956
nica	-11.6957
essay	-11.6958
▁parfaite	-11.6958
▁1987.	-11.6958
imag	-11.696
enti	-11.696
▁molécule	-11.696
kal	-11.6961
▁supprimée	-11.6961
▁placées	-11.6962
optique	-11.6965
▁script	-11.6966
bec	-11.6968
▁pêcheurs	-11.697
▁croatie	-11.6972
▁blog	-11.6972
laine	-11.6973
▁abdel	-11.6973
▁sélections	-11.6973
ect	-11.6974
aérodrome	-11.6975
lik	-11.6978
▁battue	-11.6979
▁confère	-11.6979
▁batt	-11.6981
▁imaginaire	-11.6982
histori	-11.6984
dat	-11.6984
▁attendu	-11.6987
lisation	-11.6987
▁précédé	-11.6987
▁trahison	-11.6988
▁1840	-11.6989
▁automatiquement	-11.699
▁academy	-11.6992
associa	-11.6992
▁grandement	-11.6993
▁querelle	-11.6994
tives	-11.6995
lau	-11.6995
▁balles	-11.6995
oriente	-11.6996
▁recteur	-11.6997
cip	-11.6997
▁saisi	-11.6997
▁1793,	-11.6998
▁shanghai	-11.7
▁amsterdam	-11.7003
▁fernando	-11.7004
wall	-11.7006
▁vosges	-11.7008
▁tambour	-11.7009
▁ménages	-11.7009
▁isaac	-11.7009
▁géologique	-11.701
▁sensibles	-11.7011
eco	-11.7011
▁bénéficient	-11.7011
▁prairies	-11.7011
mey	-11.7012
▁hypothèses	-11.7015
▁favori	-11.7015
▁admet	-11.7016
▁motte	-11.7016
meur	-11.7016
▁vagues	-11.7018
usement	-11.702
nick	-11.702
▁pennsylvanie	-11.7021
▁plateaux	-11.7024
▁robot	-11.7025
oua	-11.7027
▁sibérie	-11.7027
▁édifié	-11.7028
▁conçoit	-11.7028
▁couples	-11.7029
arm	-11.703
nah	-11.703
▁bologne	-11.7031
zza	-11.7034
▁profitant	-11.7034
▁genou	-11.7035
rut	-11.7036
dore	-11.7038
▁fixer	-11.7038
coréenne	-11.7039
▁cook	-11.7039
ouragan	-11.704
grande	-11.704
▁natif	-11.704
lazare	-11.7041
ouvrages	-11.7041
▁originales	-11.7041
▁clientèle	-11.7042
▁travées	-11.7043
▁marée	-11.7044
▁civiles	-11.7045
▁donnera	-11.7046
▁florent	-11.7047
▁média	-11.7048
▁prophète	-11.7048
▁armoiries	-11.7051
▁kiev	-11.7052
▁consistant	-11.7053
▁préliminaire	-11.7053
compa	-11.7055
▁1839	-11.7055
▁boud	-11.7056
▁inverse	-11.7056
▁pul	-11.7057
▁fusionne	-11.7061
▁commerçants	-11.7062
▁tho	-11.7065
lich	-11.7065
▁veine	-11.7065
▁séances	-11.7067
éruption	-11.7067
fia	-11.7068
▁funéraire	-11.707
▁exercé	-11.7072
▁verra	-11.7072
▁expert	-11.7073
public	-11.7074
▁meubles	-11.7074
conf	-11.7075
bald	-11.7075
▁dignité	-11.7076
▁vivante	-11.7077
▁franchi	-11.7078
▁madagascar	-11.7079
▁bil	-11.7079
▁conservant	-11.708
▁flori	-11.708
▁appellation	-11.708
emprunt	-11.7082
ghe	-11.7082
sauveur	-11.7083
▁protéine	-11.7084
uruguay	-11.7084
▁consommateurs	-11.7085
▁assurent	-11.7086
mund	-11.7086
▁€	-11.7086
▁taka	-11.7087
▁western	-11.7088
▁héberge	-11.7089
▁envisagé	-11.709
▁mach	-11.7092
▁déroulée	-11.7092
▁remplir	-11.7092
hei	-11.7092
▁bouclier	-11.7093
▁hydrographique	-11.7093
ande	-11.7093
▁chanoines	-11.7095
▁handball	-11.7096
oratoire	-11.7097
▁préface	-11.7098
▁mori	-11.7101
bras	-11.7105
▁attribués	-11.7106
zou	-11.7108
ambre	-11.7108
ν	-11.711
zie	-11.711
▁1984.	-11.711
hausen	-11.7111
▁retable	-11.7111
▁adopter	-11.7111
▁faille	-11.7117
ull	-11.7119
▁symphonie	-11.712
▁développa	-11.7121
▁bren	-11.7121
▁draft	-11.7122
▁rochelle	-11.7122
arles	-11.7123
gau	-11.7124
▁banquier	-11.7124
▁1923,	-11.7126
▁mara	-11.7128
dir	-11.7129
▁alger	-11.7129
exportation	-11.713
▁mercure	-11.7131
ottawa	-11.7131
▁fair	-11.7132
▁autonomie	-11.7133
noir	-11.7134
dol	-11.7134
▁miguel	-11.7136
▁importé	-11.7141
▁antérieure	-11.7141
introduire	-11.7141
▁négatif	-11.7142
▁accuse	-11.7143
▁démarre	-11.7144
▁documentaires	-11.7145
▁austro	-11.7146
▁caire	-11.7146
essonne	-11.7147
▁fiche	-11.7147
maître	-11.7147
▁composantes	-11.7147
enheim	-11.7148
má	-11.7148
▁devraient	-11.7148
igna	-11.7148
▁extrême	-11.7148
▁sara	-11.7149
▁primitif	-11.7149
▁opéra	-11.7151
rod	-11.7151
200	-11.7152
▁lait	-11.7152
▁disciples	-11.7152
▁dégage	-11.7154
▁accusations	-11.7156
▁travaillait	-11.7157
▁pentes	-11.7158
▁ludwig	-11.7158
▁jordan	-11.7159
▁fréquences	-11.716
ennes	-11.7162
▁butte	-11.7163
▁fondent	-11.7163
angelo	-11.7164
▁tropicale	-11.7166
▁remontée	-11.7167
▁graphe	-11.7169
▁colonial	-11.7173
▁escalier	-11.7174
brun	-11.7175
▁avancées	-11.7176
▁calculer	-11.7177
▁jambe	-11.7178
▁1838	-11.7179
▁nièce	-11.7181
▁playstation	-11.7181
▁costumes	-11.7181
rita	-11.7181
▁notaire	-11.7182
▁paulo	-11.7185
▁liverpool	-11.7186
▁maxime	-11.7187
amener	-11.7188
▁localisation	-11.7188
dée	-11.7189
▁lys	-11.7189
ètes	-11.7189
▁réorganisation	-11.7189
bres	-11.7189
▁sommeil	-11.7189
alba	-11.719
▁semblables	-11.7191
cloud	-11.7191
▁carrosserie	-11.7192
▁salomon	-11.7192
▁agences	-11.7192
dja	-11.7193
▁immédiat	-11.7193
▁quatuor	-11.7195
▁march	-11.7196
▁clavier	-11.7197
▁entraîner	-11.7197
▁terminal	-11.7199
oga	-11.72
ds	-11.72
▁météo	-11.72
▁recueille	-11.7203
accession	-11.7203
▁namur	-11.7203
▁syndicale	-11.7204
▁1842	-11.7204
▁renouveau	-11.7205
▁obligations	-11.7205
▁was	-11.7207
▁arrivés	-11.7213
book	-11.7213
service	-11.7214
▁sorcière	-11.7218
sz	-11.722
▁1,5	-11.7221
▁organisa	-11.7221
▁russell	-11.7222
▁éliminer	-11.7224
nit	-11.7224
▁collégiale	-11.7226
▁postérieure	-11.7226
▁fret	-11.7227
▁avancée	-11.7227
ances	-11.7228
▁acheter	-11.7228
▁restaurer	-11.7231
tem	-11.7231
▁juriste	-11.7231
▁étroitement	-11.7232
▁bombes	-11.7232
▁rai	-11.7233
▁procédures	-11.7233
▁brin	-11.7234
▁consacrés	-11.7234
▁clerc	-11.7235
▁brad	-11.7235
apparaît	-11.7237
érosion	-11.7238
▁hervé	-11.724
hoff	-11.724
▁négociant	-11.7242
▁castel	-11.7242
▁échangé	-11.7246
▁reviennent	-11.7249
▁damas	-11.7251
▁meeting	-11.7252
etto	-11.7253
▁1862	-11.7253
utilise	-11.7255
alter	-11.7259
▁dôme	-11.726
çant	-11.7261
chine	-11.7262
▁bits	-11.7263
amendement	-11.7263
▁recouvre	-11.7264
▁privilèges	-11.7264
▁passés	-11.7266
▁xviii	-11.7267
vide	-11.7269
▁1913,	-11.727
▁menaces	-11.727
▁typiquement	-11.727
ight	-11.7271
sio	-11.7272
entoure	-11.7272
▁up	-11.7273
stad	-11.7274
▁rite	-11.7274
approbation	-11.7275
▁chanoine	-11.7279
▁signalé	-11.7279
▁bridge	-11.7279
▁belgrade	-11.7281
vall	-11.7282
▁bordée	-11.7283
▁extérieures	-11.7286
▁habsbourg	-11.7287
arg	-11.7288
▁coordonnées	-11.7289
▁indépendamment	-11.7289
▁singapour	-11.7289
▁milliard	-11.7291
▁relevant	-11.7291
gno	-11.7292
▁passées	-11.7292
▁colorado	-11.7292
▁barrages	-11.7293
cart	-11.7295
rev	-11.7295
inte	-11.7295
ailles	-11.7296
▁series	-11.7296
she	-11.7296
api	-11.7296
▁situent	-11.7297
▁emprunte	-11.7298
▁employée	-11.7299
▁relatifs	-11.73
wind	-11.7301
ings	-11.7302
-200	-11.7303
dynamique	-11.7303
autobus	-11.7304
▁néolithique	-11.7304
▁aînée	-11.7306
▁enrichi	-11.7306
▁recommande	-11.7308
▁véritablement	-11.731
abondance	-11.7312
"".	-11.7315
▁kir	-11.7315
▁incident	-11.7317
▁bert	-11.7319
▁défendu	-11.732
▁porta	-11.732
▁bleus	-11.7321
▁tap	-11.7321
▁casino	-11.7324
atome	-11.7325
▁duel	-11.7325
▁1985.	-11.7325
▁investissements	-11.7326
▁figurant	-11.7327
▁extérieurs	-11.7328
▁ordonna	-11.733
▁séquences	-11.7331
▁héritage	-11.7332
▁1843	-11.7333
max	-11.7335
version	-11.7336
▁kha	-11.7336
▁1885	-11.7339
▁radicale	-11.7339
harmoni	-11.734
prim	-11.7341
▁fun	-11.7342
▁continental	-11.7343
identifier	-11.7343
▁nordique	-11.7345
▁comportements	-11.7346
cation	-11.7346
arcade	-11.7348
▁brasserie	-11.735
▁1841	-11.735
▁étudiée	-11.7351
▁sem	-11.7352
systématiquement	-11.7352
▁ultérieurement	-11.7353
route	-11.7354
▁1836	-11.7354
rak	-11.7355
▁équivalente	-11.7356
▁procéder	-11.7362
▁hélène	-11.7363
▁cycles	-11.7364
▁violente	-11.7365
▁hôtels	-11.7367
intersection	-11.7369
▁classic	-11.737
▁tueur	-11.7371
allure	-11.7372
nova	-11.7372
▁gravé	-11.7372
▁dictature	-11.7373
iga	-11.7374
▁cyclo	-11.7374
hort	-11.7374
rect	-11.7375
uré	-11.7378
encre	-11.7379
anvers	-11.7379
lab	-11.7381
adolescence	-11.7382
▁honoraire	-11.7382
▁séjourne	-11.7384
iam	-11.7384
▁traduire	-11.7385
source	-11.7385
elena	-11.7386
made	-11.7388
▁relié	-11.739
hra	-11.739
nder	-11.7392
cad	-11.7392
▁1807	-11.7392
▁disciple	-11.7393
▁tigre	-11.7393
alo	-11.7395
▁suspect	-11.7395
▁exposées	-11.7395
▁défensif	-11.7396
▁architectural	-11.7397
rug	-11.7397
anciennement	-11.7397
▁lancées	-11.7399
▁cooper	-11.7399
▁missionnaire	-11.7401
▁distincts	-11.7401
▁1803	-11.7402
▁ascension	-11.7403
tō	-11.7403
▁dispositifs	-11.7404
▁porteur	-11.7404
▁abraham	-11.7404
ò	-11.7408
▁croyant	-11.7408
amen	-11.7411
rb	-11.7411
viva	-11.7411
alek	-11.7412
▁cacher	-11.7413
▁ottomane	-11.7414
rn	-11.7414
▁tenait	-11.7415
▁légumes	-11.7417
odon	-11.7417
▁poursuivant	-11.742
▁temples	-11.742
▁fus	-11.7421
nga	-11.7421
▁renforts	-11.7421
▁impôts	-11.7421
▁latitude	-11.7426
▁grat	-11.7426
▁informe	-11.7427
▁collègue	-11.7428
▁freud	-11.7429
rite	-11.7429
▁crue	-11.743
▁demandes	-11.7432
▁pharmacie	-11.7433
▁ser	-11.7433
▁1911,	-11.7433
▁intra	-11.7434
▁originel	-11.7434
▁lente	-11.7436
▁bron	-11.7441
▁mexicain	-11.7441
bray	-11.7443
▁coutume	-11.7443
▁tantôt	-11.7445
▁guill	-11.7447
▁assemblées	-11.7448
▁déclenchement	-11.745
▁wang	-11.7452
▁souhaitait	-11.7452
ignon	-11.7452
▁illustrations	-11.7454
▁jin	-11.7455
nell	-11.7455
amand	-11.7457
pm	-11.7457
▁naturaliste	-11.7459
▁grammaire	-11.7461
▁bosnie	-11.7461
oche	-11.7461
▁douzaine	-11.7464
▁collision	-11.7466
▁nicole	-11.7467
▁devance	-11.7468
▁localités	-11.7469
▁crues	-11.747
mane	-11.747
▁volontairement	-11.747
enseignant	-11.7471
mara	-11.7472
▁concentrer	-11.7472
tchi	-11.7473
▁composante	-11.7473
▁acceptée	-11.7473
prussienne	-11.7476
▁chapelles	-11.7478
▁lumières	-11.7478
▁sachant	-11.748
allemande	-11.748
lina	-11.7481
▁ajoutée	-11.7482
▁1886	-11.7482
intérim	-11.7484
▁platon	-11.7484
science	-11.7487
dell	-11.7487
▁décédée	-11.7491
▁fidélité	-11.7493
ön	-11.7493
métrie	-11.7494
▁procession	-11.7494
incident	-11.7495
▁ordinateurs	-11.7496
▁rebaptisé	-11.7497
▁défensive	-11.7499
rei	-11.7499
▁végétaux	-11.75
▁camion	-11.7502
énoncé	-11.7502
▁fièvre	-11.7502
▁tables	-11.7503
▁bris	-11.7503
▁litres	-11.7505
▁protestant	-11.7505
▁country	-11.7508
▁basés	-11.7509
▁hermann	-11.7515
▁souris	-11.7516
▁jadis	-11.7516
▁amical	-11.7518
apprenti	-11.7519
emport	-11.7523
witt	-11.7523
britannique	-11.7524
ew	-11.7525
▁ernst	-11.7526
▁1982.	-11.7527
cit	-11.7527
▁crainte	-11.753
coll	-11.753
schi	-11.7531
etat	-11.7531
incline	-11.7532
▁antilles	-11.7533
▁emmené	-11.7534
isch	-11.7534
▁envoya	-11.7535
▁(')	-11.7535
alisé	-11.7536
cn	-11.7536
▁donnés	-11.7536
9.	-11.7536
▁retourna	-11.7536
▁émigré	-11.7537
explosif	-11.7537
▁privilégié	-11.7538
▁fay	-11.7538
▁sant	-11.7539
▁challenge	-11.754
adversaire	-11.7541
radio	-11.7541
affirmer	-11.7541
▁survivre	-11.7543
expliquer	-11.7544
▁nourrir	-11.7549
▁são	-11.7549
sec	-11.7549
▁romaines	-11.755
▁dessine	-11.7551
▁1968.	-11.7551
▁mobilisation	-11.7552
▁agriculteurs	-11.7554
▁cascade	-11.7554
н	-11.7554
▁amérindiens	-11.7555
osité	-11.7556
▁1916,	-11.7557
assise	-11.7557
interroge	-11.7557
▁mohammed	-11.7558
accélération	-11.7561
▁terra	-11.7562
▁http	-11.7563
anga	-11.7564
anza	-11.7565
▁1983.	-11.7565
▁clause	-11.7565
▁artificiel	-11.7565
▁gérant	-11.7566
sœur	-11.7568
▁autrichiens	-11.7569
▁lnh	-11.7569
▁physicien	-11.7569
▁spectateur	-11.7571
▁choisis	-11.7573
▁salvador	-11.7573
wie	-11.7574
héritier	-11.7575
▁célébré	-11.7576
▁volet	-11.7578
fs	-11.7578
▁satisfait	-11.7578
▁cendres	-11.7579
▁trahi	-11.7582
shin	-11.7583
▁concernés	-11.7584
▁relégation	-11.7584
victor	-11.7586
▁supprimer	-11.7587
▁roux	-11.7587
▁substances	-11.7587
brie	-11.7589
▁occidentales	-11.759
▁tendances	-11.7591
▁conçus	-11.7591
▁prétexte	-11.7594
▁enlevé	-11.7595
▁valide	-11.7595
gén	-11.7595
ième	-11.7595
ssier	-11.7595
▁moul	-11.7598
endo	-11.7599
lange	-11.76
▁1891	-11.7602
andra	-11.7602
▁assister	-11.7603
enburg	-11.7603
▁stadium	-11.7605
▁dalle	-11.7606
interromp	-11.761
iko	-11.761
▁difficilement	-11.7611
▁steven	-11.7611
hut	-11.7611
▁déterminant	-11.7612
▁reconstruire	-11.7614
▁goutte	-11.7615
▁barr	-11.7615
▁coran	-11.7615
▁grant	-11.7616
tara	-11.7616
▁ouverture	-11.7616
▁orchestra	-11.7617
▁recense	-11.7618
▁croisés	-11.7619
▁initiative	-11.7621
organe	-11.7621
▁adaptés	-11.7621
▁forestier	-11.7622
▁limousin	-11.7624
▁plages	-11.7624
ologue	-11.7624
shima	-11.7626
▁combustible	-11.7626
▁space	-11.7628
▁bohême	-11.7629
mouth	-11.763
▁́	-11.763
▁supporter	-11.7632
rü	-11.7633
expulsion	-11.7633
▁entretient	-11.7635
▁mange	-11.7635
▁violences	-11.7636
▁adverse	-11.7638
élis	-11.7638
▁panne	-11.7638
amon	-11.764
lain	-11.7642
tonique	-11.7643
▁regroupés	-11.7644
р	-11.7646
▁mare	-11.7649
uto	-11.7651
▁bataillons	-11.7651
▁obtenus	-11.7652
interruption	-11.7653
▁sûreté	-11.7653
▁traductions	-11.7653
▁travailla	-11.7654
▁arcs	-11.7655
pet	-11.7655
apo	-11.7655
▁sul	-11.7655
▁tremblement	-11.7656
arras	-11.7656
phal	-11.7657
▁heureux	-11.7658
box	-11.766
▁bré	-11.766
▁communiquer	-11.7661
▁lancent	-11.7663
▁foire	-11.7663
▁dance	-11.7664
▁constitués	-11.7668
▁alpha	-11.767
ño	-11.7674
▁chair	-11.7675
▁négocier	-11.7675
evitch	-11.7676
clav	-11.7676
indication	-11.7677
▁reporter	-11.7678
▁1834	-11.768
bier	-11.7684
▁profondes	-11.7685
vincent	-11.7686
▁stricte	-11.7686
map	-11.7688
▁existé	-11.7689
▁décline	-11.7689
▁grottes	-11.769
▁business	-11.769
gèrent	-11.769
▁filière	-11.7691
dur	-11.7693
▁symétrique	-11.7693
▁guer	-11.7694
gt	-11.7694
excès	-11.7695
▁monastique	-11.7695
esco	-11.7695
▁virage	-11.7696
▁fondamental	-11.7696
▁little	-11.77
iaux	-11.7703
arizona	-11.7704
▁pèlerins	-11.7704
▁homonyme	-11.7707
▁réunissant	-11.7707
▁rot	-11.7708
instituteur	-11.7708
▁capturer	-11.7709
▁valent	-11.7709
▁rh	-11.7709
▁halte	-11.7713
opposent	-11.7713
▁gardiens	-11.7715
omètre	-11.7716
fasci	-11.7717
▁sourd	-11.7718
▁infini	-11.7718
▁membrane	-11.7719
▁1920.	-11.7719
▁terreur	-11.772
▁surnommée	-11.772
maxim	-11.7721
▁vétérinaire	-11.7722
obo	-11.7724
baï	-11.7725
▁coréen	-11.7728
▁expliqué	-11.773
▁propulsion	-11.7731
blan	-11.7731
ht	-11.7732
éloigne	-11.7732
circ	-11.7734
▁monumentale	-11.7734
oco	-11.7735
quo	-11.7736
hib	-11.7737
▁mémorial	-11.774
▁concerto	-11.774
▁thr	-11.774
électro	-11.7742
▁recrue	-11.7743
▁couronné	-11.7743
▁consécutives	-11.7744
bs	-11.7746
agissant	-11.7747
▁guerriers	-11.7748
▁gratuitement	-11.7749
arrive	-11.775
amus	-11.7752
▁pèse	-11.7756
▁enchaîne	-11.7756
uche	-11.7756
▁parallèles	-11.7757
▁refusent	-11.7759
▁emprunté	-11.776
▁gouvernementale	-11.776
▁enquêtes	-11.7761
▁berceau	-11.7762
▁mythique	-11.7764
arque	-11.7768
▁interventions	-11.7771
▁cherchent	-11.7771
▁standards	-11.7772
▁apparenté	-11.7772
▁polynôme	-11.7773
▁impliquant	-11.7773
tens	-11.7775
▁violents	-11.7776
tib	-11.7777
▁varier	-11.7778
électron	-11.7781
états	-11.7785
▁trilogie	-11.7789
double	-11.7789
▁retira	-11.779
▁vassal	-11.779
▁sessions	-11.7793
▁plats	-11.7794
évangile	-11.7795
▁séville	-11.7799
ibles	-11.78
▁ahmed	-11.78
riot	-11.7801
▁croisière	-11.7803
▁network	-11.7804
pend	-11.7804
▁retrouva	-11.7809
▁mélodie	-11.781
pac	-11.781
affranchi	-11.7812
▁bénéfices	-11.7813
cens	-11.7814
▁procédés	-11.7814
▁cyclisme	-11.7815
▁pistolet	-11.7816
▁macédoine	-11.7818
pn	-11.7819
lc	-11.7822
ock	-11.7822
▁roumain	-11.7824
▁présentées	-11.7824
▁poursuivent	-11.7824
▁meuse	-11.7827
ι	-11.7827
▁proposées	-11.7829
▁contour	-11.783
▁mexico	-11.783
▁existence	-11.7831
hétéro	-11.7831
arri	-11.7831
▁jus	-11.7833
andy	-11.7834
work	-11.7838
▁médicis	-11.7839
tral	-11.784
cumul	-11.784
▁fibres	-11.7844
▁italiennes	-11.7846
black	-11.7846
▁class	-11.7848
insertion	-11.7849
▁gam	-11.7849
arron	-11.7849
uka	-11.7849
▁shu	-11.7849
▁roulant	-11.7849
▁enseignements	-11.7852
▁musulman	-11.7852
shō	-11.7852
cés	-11.7855
▁recon	-11.7856
benz	-11.7856
▁oublié	-11.7856
▁résumé	-11.7858
exclusion	-11.7859
étudiants	-11.7861
▁aventure	-11.7861
quadr	-11.7861
châtel	-11.7863
▁budapest	-11.7864
berger	-11.7866
▁graveur	-11.7867
taï	-11.7867
ün	-11.7868
ouf	-11.787
totalité	-11.7871
▁rappelant	-11.7872
▁1884	-11.7872
▁62	-11.7872
▁kansas	-11.7873
▁foyers	-11.7875
▁milice	-11.7876
▁tele	-11.7877
octave	-11.7877
▁1844	-11.7877
▁descendance	-11.7877
électeur	-11.7879
▁mutation	-11.7879
▁essentielle	-11.788
▁harvard	-11.7883
▁paléo	-11.7884
▁urbaines	-11.7885
▁sollicité	-11.7885
▁invitée	-11.7887
phi	-11.7887
▁annulé	-11.7888
insee	-11.7889
▁perdit	-11.7889
▁concevoir	-11.7891
iter	-11.7896
▁maximal	-11.7896
ür	-11.7898
jing	-11.79
▁1905,	-11.7902
herm	-11.7902
idé	-11.7903
solid	-11.7904
auberge	-11.7904
abilis	-11.7904
rai	-11.7904
▁cantonal	-11.7904
égide	-11.7904
▁mépris	-11.7905
▁pionniers	-11.7905
▁réacteur	-11.7906
▁sho	-11.7906
▁disait	-11.7907
▁cahier	-11.7907
spor	-11.7908
▁bros	-11.7911
▁fribourg	-11.7913
▁refusant	-11.7914
▁nage	-11.7916
▁symbolise	-11.7917
▁enjeux	-11.7918
▁déformation	-11.7921
▁aile	-11.7921
▁bonn	-11.7921
▁dérivée	-11.7921
λ	-11.7922
▁casting	-11.7922
▁oublier	-11.7922
poi	-11.7923
dri	-11.7924
▁1861	-11.7925
▁acier	-11.7925
▁varient	-11.7928
▁déployé	-11.7928
aperçoit	-11.7931
▁maïs	-11.7932
rome	-11.7934
▁hei	-11.7934
▁juives	-11.7935
▁chevet	-11.7936
▁opposants	-11.7937
▁développées	-11.7939
geneviève	-11.794
▁reprit	-11.794
jeu	-11.7941
▁publient	-11.7944
▁anvers	-11.7946
▁stefan	-11.7947
omo	-11.7948
hau	-11.7949
▁collaboré	-11.7949
attend	-11.7953
▁milite	-11.7953
mari	-11.7953
▁palme	-11.7954
▁fossé	-11.7954
▁survenue	-11.7954
épargne	-11.7956
amédée	-11.7956
cross	-11.7956
dji	-11.7959
▁billet	-11.796
▁japonaises	-11.796
astronomie	-11.796
roz	-11.7962
▁accompagnés	-11.7963
nak	-11.7964
▁games	-11.7965
dp	-11.7966
▁estiment	-11.7966
▁brigadier	-11.7968
▁démolition	-11.7969
▁constat	-11.797
▁lucratif	-11.7971
▁py	-11.7972
▁66	-11.7973
▁mandats	-11.7973
fig	-11.7978
pproximativement	-11.7979
▁compact	-11.7981
▁offerte	-11.7982
▁matérielle	-11.7982
blé	-11.7982
▁adrien	-11.7983
▁réussir	-11.7984
▁herbert	-11.7986
▁héritiers	-11.7987
famille	-11.7988
export	-11.7989
▁1811	-11.7989
▁collaborateur	-11.7993
tang	-11.7994
bah	-11.7995
▁chauffage	-11.7996
▁favorisé	-11.7996
▁call	-11.7998
▁59	-11.7998
▁espère	-11.7998
church	-11.7999
▁dépendait	-11.8
▁ple	-11.8001
▁passait	-11.8001
▁gratuite	-11.8003
▁1876	-11.8003
▁équilibre	-11.8004
agnès	-11.8006
offrir	-11.8006
▁mons	-11.8007
▁entiers	-11.8008
▁flot	-11.8012
▁sabre	-11.8012
▁égyptienne	-11.8012
▁gary	-11.8012
git	-11.8014
▁coach	-11.8014
rium	-11.8015
omer	-11.8016
gir	-11.8017
chester	-11.8017
▁interrogé	-11.8017
▁inutile	-11.8017
▁1799	-11.8017
▁journalisme	-11.8019
▁aménagée	-11.802
crit	-11.802
put	-11.802
▁indépendantes	-11.8022
▁limitrophe	-11.8022
▁sponsor	-11.8022
now	-11.8024
▁masses	-11.8024
vée	-11.8024
▁manipulation	-11.8027
croc	-11.8027
interface	-11.8027
affect	-11.8028
▁soliste	-11.8032
maire	-11.8032
exprime	-11.8032
▁hébreu	-11.8032
▁policière	-11.8033
▁parvint	-11.8034
▁cavalier	-11.8034
▁prirent	-11.8034
▁souverains	-11.8035
zier	-11.8035
▁1975.	-11.804
▁charlemagne	-11.8042
▁instructions	-11.8042
▁condamne	-11.8043
bris	-11.8043
zet	-11.8043
▁rassembler	-11.8045
▁faudra	-11.8045
▁correctement	-11.8046
▁nourri	-11.8046
▁détaillée	-11.8047
▁kay	-11.8048
▁spécificité	-11.8048
▁kent	-11.8049
▁roque	-11.805
strat	-11.805
depuis	-11.8051
▁libère	-11.8054
ègue	-11.8055
▁sm	-11.8057
▁proie	-11.8058
▁transcription	-11.8058
▁calculs	-11.8061
atus	-11.8063
loo	-11.8063
▁planètes	-11.8066
▁éditée	-11.8068
▁coupes	-11.8069
▁1864	-11.807
▁multiplication	-11.807
▁prospérité	-11.807
▁définies	-11.8072
gaud	-11.8073
▁mercedes	-11.8073
▁tai	-11.8075
▁barry	-11.8075
▁stuart	-11.8076
▁retrouvée	-11.8076
▁centenaire	-11.8076
cke	-11.8076
▁1816	-11.8078
▁reliée	-11.8078
▁(†	-11.8079
▁parue	-11.808
éthiopie	-11.808
syn	-11.8081
▁bala	-11.8081
▁essaye	-11.8084
athènes	-11.8084
▁économie	-11.8084
antique	-11.8084
▁monta	-11.8085
▁cava	-11.8088
ouk	-11.8089
▁pilotage	-11.8089
▁régie	-11.809
haïti	-11.8091
traité	-11.8091
▁voyager	-11.8091
▁ramène	-11.8092
nen	-11.8093
▁chartres	-11.8093
▁gène	-11.8093
▁1500	-11.8095
▁testé	-11.8097
▁fonctionnelle	-11.8098
▁laser	-11.8099
agu	-11.8099
▁cure	-11.8099
▁nowiki	-11.8099
▁confi	-11.8099
boul	-11.8101
▁affectée	-11.8102
▁diplomatiques	-11.8103
pid	-11.8103
▁expansion	-11.8104
▁pardon	-11.8105
▁attribuer	-11.8106
guard	-11.8108
▁contribua	-11.8109
tica	-11.811
▁?"	-11.811
kor	-11.8111
escu	-11.8111
▁germain	-11.8113
▁pousser	-11.8114
▁coupole	-11.8115
▁thématiques	-11.8115
▁(0	-11.8116
▁berbère	-11.8117
ulf	-11.8117
▁maría	-11.8118
▁confirmer	-11.8119
phé	-11.812
appelé	-11.8123
érien	-11.8123
poste	-11.8123
▁jouait	-11.8123
▁étudia	-11.8124
);	-11.8125
▁abords	-11.8127
ister	-11.8127
inspecteur	-11.8127
đ	-11.8129
▁touristiques	-11.813
▁kn	-11.8131
amor	-11.8132
▁âgés	-11.8132
saur	-11.8132
▁colle	-11.8133
▁nau	-11.8134
▁cherchant	-11.8135
▁manteau	-11.8135
▁spécialisées	-11.8135
lines	-11.8137
pg	-11.814
▁alimenté	-11.8141
emporter	-11.8141
ل	-11.8142
▁michigan	-11.8142
armure	-11.8143
▁intéressante	-11.8143
gag	-11.8146
celles	-11.8147
▁fumée	-11.8149
▁retourné	-11.8151
▁sélectionneur	-11.8151
yvelines	-11.8151
▁échoué	-11.8151
▁dialecte	-11.8152
▁lake	-11.8152
tian	-11.8153
gare	-11.8153
▁légale	-11.8155
▁900	-11.8155
▁souhaitant	-11.8155
pine	-11.8156
▁matthew	-11.8158
▁conquis	-11.8158
ove	-11.8158
▁fortifié	-11.8158
lah	-11.8158
▁canard	-11.8159
▁régulières	-11.8159
life	-11.8161
bau	-11.8161
▁certification	-11.8161
▁1976.	-11.8164
▁humoristique	-11.8164
icon	-11.8167
▁mercredi	-11.8167
hang	-11.8167
▁guéri	-11.8167
▁évident	-11.8169
▁franklin	-11.8174
▁1978.	-11.8174
▁europa	-11.8176
σ	-11.8176
▁dépassant	-11.8177
hist	-11.8177
adel	-11.8179
éry	-11.8179
▁fabriqués	-11.8179
▁âgées	-11.8181
▁autorisés	-11.8181
▁pensait	-11.8183
▁1796	-11.8184
▁quoique	-11.8184
▁confondre	-11.8184
▁alsace	-11.8185
▁camions	-11.8186
rupt	-11.8189
indochine	-11.8189
tl	-11.8191
τ	-11.8192
▁comportait	-11.8192
▁décisif	-11.8192
▁chaos	-11.8192
▁extrémités	-11.8193
zine	-11.8193
▁cartouche	-11.8194
▁tétra	-11.8195
▁reproduire	-11.8195
identifie	-11.8195
▁formellement	-11.8196
▁silver	-11.8196
▁géographiques	-11.8196
▁pionnier	-11.8197
▁str	-11.8198
▁anneaux	-11.8198
▁poitrine	-11.8198
pyrénées	-11.82
▁1804	-11.8201
▁teneur	-11.8205
▁déportation	-11.8208
odor	-11.8209
▁derby	-11.821
law	-11.8212
▁spécialité	-11.8212
▁63	-11.8212
▁distributeur	-11.8213
▁arnaud	-11.8213
▁fm	-11.8213
▁kur	-11.8213
▁chev	-11.8214
▁beatles	-11.8219
▁interactions	-11.8219
bian	-11.8219
anie	-11.822
▁tab	-11.8221
orage	-11.8223
▁monnaies	-11.8223
▁rejetée	-11.8223
▁comédien	-11.8224
▁évoquant	-11.8224
▁carnaval	-11.8224
▁essentiel	-11.8224
alban	-11.8226
tous	-11.8227
▁dispersé	-11.8227
▁prêts	-11.8227
▁aperçu	-11.823
▁sexuel	-11.8231
▁exprimé	-11.8232
▁tombée	-11.8233
ś	-11.8233
dié	-11.8234
ulu	-11.8235
т	-11.8236
initie	-11.8237
▁lind	-11.8238
▁couper	-11.824
▁réédition	-11.8241
▁fermer	-11.8243
▁monoplace	-11.8243
▁aliments	-11.8244
▁grise	-11.8244
▁arm	-11.8245
▁combustion	-11.8246
opérer	-11.8246
▁mix	-11.8246
▁dépouille	-11.8246
▁séisme	-11.8249
éni	-11.8249
▁plou	-11.825
selon	-11.825
)",	-11.825
▁pié	-11.8256
▁descendre	-11.8257
▁précède	-11.8258
▁drap	-11.826
▁retrace	-11.8262
▁motivation	-11.8262
mois	-11.8263
▁coefficient	-11.8264
▁théologien	-11.8266
astronome	-11.8266
▁réparations	-11.8267
unanimité	-11.8268
tim	-11.8269
sphère	-11.8272
▁emporté	-11.8272
him	-11.8273
▁conrad	-11.8274
sberg	-11.8274
emblème	-11.8274
formation	-11.8277
▁arrêts	-11.8277
▁1977.	-11.828
▁vectoriel	-11.8281
▁assimilé	-11.8281
▁judaïsme	-11.8281
▁vêtu	-11.8281
érable	-11.8281
▁vacant	-11.8284
▁mozart	-11.8284
▁tunisien	-11.8285
toxique	-11.8286
▁triangulaire	-11.8287
▁habite	-11.829
▁1825	-11.8292
▁cyber	-11.8294
▁débutant	-11.8295
graphique	-11.8298
estuaire	-11.8298
▁adolescents	-11.8298
▁papiers	-11.8298
▁restés	-11.8299
▁turbine	-11.83
▁hil	-11.8301
▁traitant	-11.8302
round	-11.8307
▁1972.	-11.8307
hos	-11.8307
▁clou	-11.8307
dc	-11.8307
relief	-11.8308
▁lituanie	-11.8309
trou	-11.831
ographe	-11.8313
vais	-11.8313
▁personnellement	-11.8313
▁prouve	-11.8314
▁susan	-11.8315
▁villageois	-11.8315
▁prétendu	-11.8315
rienne	-11.8317
▁cost	-11.8317
▁leçons	-11.8318
infirmière	-11.8321
▁savon	-11.8321
▁cloches	-11.8322
▁théologique	-11.8322
phil	-11.8322
élevait	-11.8324
rr	-11.8324
▁jésuite	-11.8325
▁marier	-11.8326
_9	-11.8327
▁réclame	-11.8327
▁beaumont	-11.8327
▁redécoupage	-11.8328
▁catholicisme	-11.8332
▁motion	-11.8333
▁confection	-11.8335
▁créations	-11.8335
в	-11.8338
▁unitaire	-11.8338
▁naufrage	-11.8338
▁proportionnelle	-11.8338
▁suc	-11.8339
▁cousine	-11.834
▁distingué	-11.8342
culé	-11.8344
igu	-11.8345
▁exploitée	-11.8345
conte	-11.8345
▁effective	-11.8346
alia	-11.8347
▁contenus	-11.8347
▁doigts	-11.8348
organise	-11.8349
▁adolphe	-11.835
▁1860,	-11.835
▁senior	-11.8354
élan	-11.8354
▁marcus	-11.8357
▁1981.	-11.8357
forte	-11.8357
glob	-11.8358
▁préhistorique	-11.8358
▁mince	-11.8362
▁avoue	-11.8363
chor	-11.8363
▁dossiers	-11.8364
lait	-11.8365
▁nuages	-11.8366
▁vaincre	-11.8367
investit	-11.8368
▁1833	-11.8368
thérèse	-11.8369
▁puce	-11.8371
▁mètre	-11.8371
québec	-11.8371
moni	-11.8371
pir	-11.8375
mâ	-11.8376
▁suggéré	-11.8376
hier	-11.8378
▁cuve	-11.8379
▁attaquant	-11.838
▁thermo	-11.8382
hus	-11.8383
▁location	-11.8383
émetteur	-11.8384
eye	-11.8384
▁répétition	-11.8385
▁metteur	-11.8385
▁robinson	-11.8386
▁conservent	-11.8386
▁cote	-11.8388
▁véritables	-11.8388
maur	-11.8389
officiers	-11.8389
aa	-11.839
▁impliquée	-11.8392
▁fréquentes	-11.8392
▁prononcée	-11.8393
▁tante	-11.8394
▁proposa	-11.8394
▁algérienne	-11.8394
▁pairs	-11.8395
ridge	-11.8395
encyclopédie	-11.8396
▁compression	-11.8396
otique	-11.8396
▁passerelle	-11.8397
▁ouvertement	-11.8398
▁mardi	-11.84
▁refroidissement	-11.8402
▁rochefort	-11.8403
mile	-11.8404
xie	-11.8404
orme	-11.8405
nium	-11.8405
taient	-11.841
▁appartements	-11.8412
▁binaire	-11.8413
▁martinique	-11.8414
armor	-11.8415
femme	-11.8416
▁angle	-11.8416
▁1979.	-11.8417
nommé	-11.8417
▁éducatif	-11.8418
dow	-11.8419
arrêté	-11.842
trices	-11.8423
ivo	-11.8426
▁portable	-11.8426
▁www	-11.8429
kie	-11.8429
▁baud	-11.8431
azote	-11.8433
▁éloignée	-11.8434
hart	-11.8434
▁penn	-11.8435
toire	-11.8435
▁vocale	-11.8436
▁alla	-11.8436
▁formelle	-11.844
nda	-11.8441
▁1908,	-11.8441
▁hongroise	-11.8441
▁améliore	-11.8442
[...]
